{"\u062e\u062f": 0, "\u06a9\u06d2": 1, "\u06cc\u06ba": 2, "\u0981\u0987": 3, "\u0981\u0993": 4, "\u0981\u099a": 5, "\u0981\u099a\u09be": 6, "\u0981\u09a4": 7, "\u0981\u09a4\u09c7": 8, "\u0981\u09b9": 9, "\u0981\u09f0": 10, "\u0982\u0995": 11, "\u0982\u0995\u09be\u09f0": 12, "\u0982\u0995\u09f0": 13, "\u0982\u0997": 14, "\u0982\u0997\u09b2": 15, "\u0982\u0997\u09be": 16, "\u0982\u0997\u09f0": 17, "\u0982\u09b6": 18, "\u0982\u09b8": 19, "\u0985\u0981": 20, "\u0985\u0982": 21, "\u0985\u0982\u0997": 22, "\u0985\u0982\u09b6": 23, "\u0985\u0982\u09b6\u0997\u09cd\u09f0\u09b9\u09a3": 24, "\u0985\u0982\u09b6\u09a4": 25, "\u0985\u0982\u09b6\u09f0": 26, "\u0985\u0995": 27, "\u0985\u0995\u09a3": 28, "\u0985\u0995\u09b2": 29, "\u0985\u0995\u09b2\u09c7": 30, "\u0985\u0995\u09be": 31, "\u0985\u0995\u09cd": 32, "\u0985\u0995\u09cd\u099f\u09cb": 33, "\u0985\u0995\u09cd\u099f\u09cb\u09ac\u09f0": 34, "\u0985\u0995\u09cd\u099f\u09cb\u09ac\u09f0\u09a4": 35, "\u0985\u0997\u09cd": 36, "\u0985\u0997\u09cd\u09a8\u09bf": 37, "\u0985\u0997\u09cd\u09f0": 38, "\u0985\u099e\u09cd\u099a": 39, "\u0985\u099e\u09cd\u099a\u09b2": 40, "\u0985\u099e\u09cd\u099a\u09b2\u099f\u09cb": 41, "\u0985\u099e\u09cd\u099a\u09b2\u09a4": 42, "\u0985\u099e\u09cd\u099a\u09b2\u09f0": 43, "\u0985\u09a3\u09c1": 44, "\u0985\u09a4": 45, "\u0985\u09a4\u09bf": 46, "\u0985\u09a4\u09bf\u09ac\u09be\u09b9\u09bf\u09a4": 47, "\u0985\u09a4\u09bf\u09f0\u09bf": 48, "\u0985\u09a4\u09bf\u09f0\u09bf\u0995\u09cd\u09a4": 49, "\u0985\u09a4\u09c0": 50, "\u0985\u09a4\u09cd\u09af": 51, "\u0985\u09a4\u09cd\u09af\u09a8\u09cd\u09a4": 52, "\u0985\u09a4\u09cd\u09af\u09be": 53, "\u0985\u09a5": 54, "\u0985\u09a5\u09ac\u09be": 55, "\u0985\u09a7": 56, "\u0985\u09a7\u09bf": 57, "\u0985\u09a7\u09bf\u0995": 58, "\u0985\u09a7\u09bf\u0995\u09be": 59, "\u0985\u09a7\u09bf\u0995\u09be\u0982\u09b6": 60, "\u0985\u09a7\u09bf\u0995\u09be\u09f0": 61, "\u0985\u09a7\u09bf\u09ac\u09c7\u09b6": 62, "\u0985\u09a7\u09bf\u09b7\u09cd\u09a0": 63, "\u0985\u09a7\u09c0\u09a8": 64, "\u0985\u09a7\u09c0\u09a8\u09a4": 65, "\u0985\u09a7\u09cd\u09af": 66, "\u0985\u09a7\u09cd\u09af\u0995\u09cd\u09b7": 67, "\u0985\u09a7\u09cd\u09af\u09af\u09bc\u09a8": 68, "\u0985\u09a7\u09cd\u09af\u09be": 69, "\u0985\u09a7\u09cd\u09af\u09be\u09aa\u0995": 70, "\u0985\u09a8": 71, "\u0985\u09a8\u09b2\u09be\u0987\u09a8": 72, "\u0985\u09a8\u09be": 73, "\u0985\u09a8\u09bf": 74, "\u0985\u09a8\u09c1": 75, "\u0985\u09a8\u09c1\u0997\u09be\u09ae\u09c0": 76, "\u0985\u09a8\u09c1\u09aa": 77, "\u0985\u09a8\u09c1\u09ac\u09be\u09a6": 78, "\u0985\u09a8\u09c1\u09ad\u09f1": 79, "\u0985\u09a8\u09c1\u09ae\u09a4\u09bf": 80, "\u0985\u09a8\u09c1\u09ae\u09be\u09a8": 81, "\u0985\u09a8\u09c1\u09af\u09be\u09af\u09bc\u09c0": 82, "\u0985\u09a8\u09c1\u09b7\u09cd\u09a0": 83, "\u0985\u09a8\u09c1\u09b7\u09cd\u09a0\u09be\u09a8": 84, "\u0985\u09a8\u09c1\u09b7\u09cd\u09a0\u09be\u09a8\u09a4": 85, "\u0985\u09a8\u09c1\u09b7\u09cd\u09a0\u09be\u09a8\u09f0": 86, "\u0985\u09a8\u09c1\u09b7\u09cd\u09a0\u09bf\u09a4": 87, "\u0985\u09a8\u09c1\u09b8": 88, "\u0985\u09a8\u09c1\u09b8\u09a8\u09cd\u09a7": 89, "\u0985\u09a8\u09c1\u09b8\u09f0\u09bf": 90, "\u0985\u09a8\u09c1\u09f0\u09be": 91, "\u0985\u09a8\u09c1\u09f0\u09cb\u09a7": 92, "\u0985\u09a8\u09c7\u0995": 93, "\u0985\u09a8\u09cd": 94, "\u0985\u09a8\u09cd\u09a4": 95, "\u0985\u09a8\u09cd\u09a4\u09a4": 96, "\u0985\u09a8\u09cd\u09a4\u09bf\u09ae": 97, "\u0985\u09a8\u09cd\u09a4\u09f0\u09cd": 98, "\u0985\u09a8\u09cd\u09a4\u09f0\u09cd\u0997\u09a4": 99, "\u0985\u09a8\u09cd\u09a4\u09f0\u09cd\u09ad\u09c1\u0995\u09cd\u09a4": 100, "\u0985\u09a8\u09cd\u09a7": 101, "\u0985\u09a8\u09cd\u09af": 102, "\u0985\u09a8\u09cd\u09af\u09a4\u09ae": 103, "\u0985\u09a8\u09cd\u09af\u09a4\u09ae\u0964": 104, "\u0985\u09a8\u09cd\u09af\u09be\u09a8\u09cd\u09af": 105, "\u0985\u09aa": 106, "\u0985\u09aa\u09c7": 107, "\u0985\u09aa\u09f0\u09be": 108, "\u0985\u09aa\u09f0\u09be\u09a7": 109, "\u0985\u09aa\u09f0\u09bf": 110, "\u0985\u09ab": 111, "\u0985\u09ab\u09bf": 112, "\u0985\u09ac": 113, "\u0985\u09ac\u09bf": 114, "\u0985\u09ac\u09bf\u09b9\u09a8\u09c7": 115, "\u0985\u09ad": 116, "\u0985\u09ad\u09af\u09bc\u09be\u09f0": 117, "\u0985\u09ad\u09af\u09bc\u09be\u09f0\u09a3\u09cd\u09af": 118, "\u0985\u09ad\u09be\u09f1": 119, "\u0985\u09ad\u09bf": 120, "\u0985\u09ad\u09bf\u099c\u09cd\u099e": 121, "\u0985\u09ad\u09bf\u09a8": 122, "\u0985\u09ad\u09bf\u09a8\u09af\u09bc": 123, "\u0985\u09ad\u09bf\u09a8\u09af\u09bc\u09f0": 124, "\u0985\u09ad\u09bf\u09a8\u09c7": 125, "\u0985\u09ad\u09bf\u09a8\u09c7\u09a4\u09be": 126, "\u0985\u09ad\u09bf\u09a8\u09c7\u09a4\u09cd\u09f0": 127, "\u0985\u09ad\u09bf\u09a8\u09c7\u09a4\u09cd\u09f0\u09c0": 128, "\u0985\u09ad\u09bf\u09af": 129, "\u0985\u09ad\u09bf\u09af\u09be\u09a8": 130, "\u0985\u09ad\u09bf\u09af\u09cb\u0997": 131, "\u0985\u09ad\u09bf\u09b9\u09bf\u09a4": 132, "\u0985\u09ad\u09cd\u09af\u09be": 133, "\u0985\u09b2": 134, "\u0985\u09b2\u09aa": 135, "\u0985\u09b2\u09aa\u09ae\u09be\u09a8": 136, "\u0985\u09b2\u09bf": 137, "\u0985\u09b2\u09bf\u09ae\u09cd\u09aa\u09bf": 138, "\u0985\u09b2\u09bf\u09ae\u09cd\u09aa\u09bf\u0995": 139, "\u0985\u09b7\u09cd\u099f": 140, "\u0985\u09b7\u09cd\u099f\u09ae": 141, "\u0985\u09b7\u09cd\u099f\u09cd\u09f0": 142, "\u0985\u09b7\u09cd\u099f\u09cd\u09f0\u09c7": 143, "\u0985\u09b8\u09ae": 144, "\u0985\u09b8\u09ae\u09a4": 145, "\u0985\u09b8\u09ae\u09b2\u09c8": 146, "\u0985\u09b8\u09ae\u09c0\u09af\u09bc": 147, "\u0985\u09b8\u09ae\u09c0\u09af\u09bc\u09be": 148, "\u0985\u09b8\u09ae\u09c0\u09df\u09be": 149, "\u0985\u09b8\u09ae\u09f0": 150, "\u0985\u09b8\u09c1": 151, "\u0985\u09b8\u09c1\u09ac\u09bf\u09a7\u09be": 152, "\u0985\u09b8\u09c1\u09b8\u09cd\u09a5": 153, "\u0985\u09b8\u09cd\u09a4\u09bf": 154, "\u0985\u09b8\u09cd\u09a4\u09cd\u09f0": 155, "\u0985\u09b9": 156, "\u0985\u09b9\u09be": 157, "\u0985\u09b9\u09be\u09f0": 158, "\u0985\u09f0": 159, "\u0985\u09f0\u09a3": 160, "\u0985\u09f0\u09a3\u09cd\u09af": 161, "\u0985\u09f0\u09bf": 162, "\u0985\u09f0\u09c1": 163, "\u0985\u09f0\u09c1\u09a3\u09be": 164, "\u0985\u09f0\u09c1\u09a3\u09be\u099a\u09b2": 165, "\u0985\u09f0\u09cd": 166, "\u0985\u09f0\u09cd\u099a\u09a8\u09be": 167, "\u0985\u09f0\u09cd\u099c\u09a8": 168, "\u0985\u09f0\u09cd\u099c\u09c1": 169, "\u0985\u09f0\u09cd\u09a1\u09be\u09f0": 170, "\u0985\u09f0\u09cd\u09a5": 171, "\u0985\u09f0\u09cd\u09a5\u09a8\u09c0\u09a4\u09bf": 172, "\u0985\u09f0\u09cd\u09a5\u09a8\u09c0\u09a4\u09bf\u09f0": 173, "\u0985\u09f0\u09cd\u09a5\u09a8\u09c8\u09a4\u09bf\u0995": 174, "\u0985\u09f0\u09cd\u09a5\u09be": 175, "\u0985\u09f0\u09cd\u09a5\u09be\u09ce": 176, "\u0985\u09f0\u09cd\u09a7": 177, "\u0985\u09f1": 178, "\u0985\u09f1\u09a4\u09be\u09f0": 179, "\u0985\u09f1\u09a6\u09be\u09a8": 180, "\u0985\u09f1\u09b6\u09c7\u09b7\u09a4": 181, "\u0985\u09f1\u09b6\u09cd\u09af": 182, "\u0985\u09f1\u09b6\u09cd\u09af\u09c7": 183, "\u0985\u09f1\u09b8\u09cd\u09a5": 184, "\u0985\u09f1\u09b8\u09cd\u09a5\u09be": 185, "\u0985\u09f1\u09b8\u09cd\u09a5\u09be\u09a4": 186, "\u0985\u09f1\u09b8\u09cd\u09a5\u09be\u09f0": 187, "\u0985\u09f1\u09b8\u09cd\u09a5\u09bf\u09a4": 188, "\u0985\u09f1\u09b8\u09cd\u09a5\u09bf\u09a4\u0964": 189, "\u0985\u09f1\u09b8\u09f0": 190, "\u0986\u0981": 191, "\u0986\u0981\u0995\u09bf": 192, "\u0986\u0981\u099a": 193, "\u0986\u0981\u09a4": 194, "\u0986\u0981\u09a4\u09f0": 195, "\u0986\u0981\u09a4\u09f0\u09be\u0987": 196, "\u0986\u0987": 197, "\u0986\u0987\u09a8": 198, "\u0986\u0987\u09a8\u09f0": 199, "\u0986\u0995": 200, "\u0986\u0995\u09be\u09b6": 201, "\u0986\u0995\u09be\u09f0": 202, "\u0986\u0995\u09be\u09f0\u09f0": 203, "\u0986\u0995\u09c3\u09a4\u09bf": 204, "\u0986\u0995\u09cc": 205, "\u0986\u0995\u09cd\u09f0": 206, "\u0986\u0995\u09cd\u09f0\u09ae\u09a3": 207, "\u0986\u0995\u09cd\u09f0\u09ae\u09a3\u09f0": 208, "\u0986\u0995\u09cd\u09f0\u09be\u09a8\u09cd\u09a4": 209, "\u0986\u0995\u09f0\u09cd": 210, "\u0986\u0995\u09f0\u09cd\u09b7\u09a3": 211, "\u0986\u0996": 212, "\u0986\u0996\u09cd\u09af\u09be": 213, "\u0986\u0997": 214, "\u0986\u0997\u09a4": 215, "\u0986\u0997\u09a4\u09c7": 216, "\u0986\u0997\u09a4\u09c7\u0987": 217, "\u0986\u0997\u09ac\u09a2\u09bc": 218, "\u0986\u0997\u09ac\u09a2\u09bc\u09be": 219, "\u0986\u0997\u09ac\u09a2\u09bc\u09be\u0987": 220, "\u0986\u0997\u09ac\u09a2\u09bc\u09be\u09af\u09bc\u0964": 221, "\u0986\u0997\u09ac\u09a2\u09bc\u09cb\u09f1\u09be": 222, "\u0986\u0997\u09ac\u09be\u09a2\u09bc\u09bf": 223, "\u0986\u0997\u09ae\u09a8": 224, "\u0986\u0997\u09b2\u09c8\u0995\u09c7": 225, "\u0986\u0997\u09b7\u09cd\u099f": 226, "\u0986\u0997\u09b7\u09cd\u099f\u09a4": 227, "\u0986\u0997\u09c1": 228, "\u0986\u0997\u09c7": 229, "\u0986\u0997\u09c7\u09af\u09bc\u09c7": 230, "\u0986\u0997\u09cd\u09f0\u09b9": 231, "\u0986\u0997\u09f0": 232, "\u0986\u0998\u09be\u09a4": 233, "\u0986\u0999": 234, "\u0986\u0999\u09c1": 235, "\u0986\u099a\u09b2": 236, "\u0986\u099a\u09b2\u09a4\u09c7": 237, "\u0986\u099a\u09cd\u099b\u09be": 238, "\u0986\u099a\u09f0\u09bf\u09a4": 239, "\u0986\u099b\u09be": 240, "\u0986\u099b\u09bf\u09b2": 241, "\u0986\u099b\u09bf\u09b2\u0964": 242, "\u0986\u099b\u09bf\u09b2\u09c7": 243, "\u0986\u099b\u09bf\u09b2\u09c7\u0964": 244, "\u0986\u099b\u09bf\u09b2\u09cb": 245, "\u0986\u099b\u09c7": 246, "\u0986\u099b\u09c7\u0964": 247, "\u0986\u099b\u09cb": 248, "\u0986\u099b\u09cb\u0964": 249, "\u0986\u099c\u09bf": 250, "\u0986\u099c\u09bf\u0993": 251, "\u0986\u099c\u09bf\u0995": 252, "\u0986\u099c\u09bf\u0995\u09be\u09b2\u09bf": 253, "\u0986\u099c\u09bf\u09f0": 254, "\u0986\u099e\u09cd\u099a": 255, "\u0986\u099e\u09cd\u099a\u09b2\u09bf\u0995": 256, "\u0986\u099f\u09be\u0987": 257, "\u0986\u099f\u09be\u0987\u09a4\u0995\u09c8": 258, "\u0986\u09a0": 259, "\u0986\u09a0\u0986\u09a0": 260, "\u0986\u09a0\u098f\u0995": 261, "\u0986\u09a0\u099b\u09df": 262, "\u0986\u09a0\u09a4\u09bf\u09a8\u09bf": 263, "\u0986\u09a0\u09a6\u09c1\u0987": 264, "\u0986\u09a0\u09a8\u09b9\u09df": 265, "\u0986\u09a0\u09aa\u09be\u0981\u099a": 266, "\u0986\u09a0\u09be": 267, "\u0986\u09a4\u09cd": 268, "\u0986\u09a4\u09cd\u09ae": 269, "\u0986\u09a4\u09cd\u09ae\u09aa\u09cd\u09f0\u0995\u09be\u09b6": 270, "\u0986\u09a4\u09cd\u09ae\u09b9": 271, "\u0986\u09a4\u09cd\u09ae\u09b9\u09a4\u09cd\u09af": 272, "\u0986\u09a4\u09cd\u09ae\u09b9\u09a4\u09cd\u09af\u09be": 273, "\u0986\u09a4\u09cd\u09ae\u09b9\u09a4\u09cd\u09af\u09be\u09f0": 274, "\u0986\u09a6\u09bf": 275, "\u0986\u09a6\u09bf\u09a4": 276, "\u0986\u09a6\u09bf\u09f0": 277, "\u0986\u09a6\u09c7\u09b6": 278, "\u0986\u09a6\u09f0\u09cd\u09b6": 279, "\u0986\u09a7\u09be": 280, "\u0986\u09a7\u09be\u09f0": 281, "\u0986\u09a7\u09be\u09f0\u09a4": 282, "\u0986\u09a7\u09c1": 283, "\u0986\u09a7\u09c1\u09a8\u09bf\u0995": 284, "\u0986\u09a7\u09cd\u09af": 285, "\u0986\u09a7\u09cd\u09af\u09be\u09a4\u09cd": 286, "\u0986\u09a7\u09cd\u09af\u09be\u09a4\u09cd\u09ae\u09bf\u0995": 287, "\u0986\u09a8": 288, "\u0986\u09a8\u0995\u09bf": 289, "\u0986\u09a8\u099f\u09cb": 290, "\u0986\u09a8\u09a8\u09cd\u09a6": 291, "\u0986\u09a8\u09b9\u09be\u09a4\u09c7": 292, "\u0986\u09a8\u09bf": 293, "\u0986\u09a8\u09bf\u09ac\u09b2\u09c8": 294, "\u0986\u09a8\u09c1": 295, "\u0986\u09a8\u09c1\u09b7\u09cd\u09a0\u09be\u09a8\u09bf\u0995": 296, "\u0986\u09a8\u09cd\u09a4": 297, "\u0986\u09a8\u09cd\u09a4\u0983": 298, "\u0986\u09a8\u09cd\u09a4\u0983\u09f0\u09be\u09b7\u09cd\u099f\u09cd\u09f0\u09c0\u09af\u09bc": 299, "\u0986\u09a8\u09cd\u09a4\u09f0\u09cd\u099c\u09be\u09a4\u09bf\u0995": 300, "\u0986\u09a8\u09cd\u09a6": 301, "\u0986\u09a8\u09cd\u09a6\u09cb\u09b2": 302, "\u0986\u09a8\u09cd\u09a6\u09cb\u09b2\u09a8": 303, "\u0986\u09a8\u09cd\u09a6\u09cb\u09b2\u09a8\u09a4": 304, "\u0986\u09a8\u09cd\u09a6\u09cb\u09b2\u09a8\u09f0": 305, "\u0986\u09aa": 306, "\u0986\u09aa\u09c1": 307, "\u0986\u09aa\u09c1\u09a8\u09bf": 308, "\u0986\u09aa\u09cb": 309, "\u0986\u09aa\u09cb\u09a8\u09be": 310, "\u0986\u09aa\u09cb\u09a8\u09be\u0995": 311, "\u0986\u09aa\u09cb\u09a8\u09be\u09b2\u09cb\u0995\u09c7": 312, "\u0986\u09aa\u09cb\u09a8\u09be\u09b2\u09cb\u0995\u09f0": 313, "\u0986\u09aa\u09cb\u09a8\u09be\u09f0": 314, "\u0986\u09ab": 315, "\u0986\u09ab\u0997\u09be\u09a8": 316, "\u0986\u09ab\u09cd\u09f0": 317, "\u0986\u09ab\u09cd\u09f0\u09bf\u0995\u09be": 318, "\u0986\u09ac": 319, "\u0986\u09ac\u09a6\u09cd\u09a7": 320, "\u0986\u09ac\u09cd": 321, "\u0986\u09ae": 322, "\u0986\u09ae\u09be\u0995": 323, "\u0986\u09ae\u09be\u09f0": 324, "\u0986\u09ae\u09bf": 325, "\u0986\u09ae\u09c7\u09f0\u09bf": 326, "\u0986\u09ae\u09c7\u09f0\u09bf\u0995\u09be": 327, "\u0986\u09ae\u09c7\u09f0\u09bf\u0995\u09be\u09a8": 328, "\u0986\u09ae\u09c7\u09f0\u09bf\u0995\u09be\u09f0": 329, "\u0986\u09af\u09bc": 330, "\u0986\u09af\u09bc\u09c1": 331, "\u0986\u09af\u09bc\u09cb": 332, "\u0986\u09af\u09bc\u09cb\u099c\u09a8": 333, "\u0986\u09b2": 334, "\u0986\u09b2\u09bf": 335, "\u0986\u09b2\u09c1": 336, "\u0986\u09b2\u09cb": 337, "\u0986\u09b2\u09cb\u099a\u09a8": 338, "\u0986\u09b2\u09cb\u099a\u09a8\u09be": 339, "\u0986\u09b2\u09cb\u099a\u09a8\u09c0": 340, "\u0986\u09b2\u09cb\u099a\u09a8\u09c0\u09f0": 341, "\u0986\u09b6\u09be": 342, "\u0986\u09b6\u09c0": 343, "\u0986\u09b6\u09c7": 344, "\u0986\u09b6\u09cd\u09f0": 345, "\u0986\u09b8": 346, "\u0986\u09b8\u09a8": 347, "\u0986\u09b8\u09be\u09ae": 348, "\u0986\u09b9": 349, "\u0986\u09b9\u09be\u09f0": 350, "\u0986\u09b9\u09bf": 351, "\u0986\u09b9\u09bf\u099b\u09bf\u09b2": 352, "\u0986\u09b9\u09bf\u099b\u09bf\u09b2\u0964": 353, "\u0986\u09b9\u09bf\u099b\u09c7": 354, "\u0986\u09b9\u09bf\u099b\u09c7\u0964": 355, "\u0986\u09b9\u09bf\u09ac": 356, "\u0986\u09b9\u09bf\u09ac\u09b2\u09c8": 357, "\u0986\u09b9\u09bf\u09ac\u09be": 358, "\u0986\u09b9\u09bf\u09b2\u0964": 359, "\u0986\u09b9\u09bf\u09b2\u09c7": 360, "\u0986\u09b9\u09c7": 361, "\u0986\u09b9\u09c7\u0964": 362, "\u0986\u09b9\u09cb": 363, "\u0986\u09b9\u09cb\u09ae": 364, "\u0986\u09b9\u09cb\u09ae\u09f0": 365, "\u0986\u09b9\u09f0\u09a3": 366, "\u0986\u09f0": 367, "\u0986\u09f0\u0995\u09cd\u09b7": 368, "\u0986\u09f0\u0995\u09cd\u09b7\u09c0": 369, "\u0986\u09f0\u0995\u09cd\u09b7\u09c0\u09f0": 370, "\u0986\u09f0\u09ae\u09cd\u09ad": 371, "\u0986\u09f0\u09ae\u09cd\u09ad\u09a3\u09bf": 372, "\u0986\u09f0\u09be": 373, "\u0986\u09f0\u09c1": 374, "\u0986\u09f0\u09c1\u0964": 375, "\u0986\u09f0\u09cb": 376, "\u0986\u09f0\u09cd": 377, "\u0986\u09f0\u09cd\u099f": 378, "\u0986\u09f0\u09cd\u09a5": 379, "\u0986\u09f0\u09cd\u09a5\u09bf\u0995": 380, "\u0986\u09f0\u09cd\u09af": 381, "\u0986\u09f0\u09cd\u09b9\u09bf": 382, "\u0986\u09f1": 383, "\u0986\u09f1\u09a6\u09cd\u09a7": 384, "\u0986\u09f1\u09be": 385, "\u0986\u09f1\u09bf": 386, "\u0986\u09f1\u09bf\u09b7\u09cd\u0995\u09be\u09f0": 387, "\u0987\u0964": 388, "\u0987\u0982": 389, "\u0987\u0982\u09b2\u09c7\u09a3\u09cd\u09a1": 390, "\u0987\u0982\u09f0\u09be\u099c": 391, "\u0987\u0982\u09f0\u09be\u099c\u09c0": 392, "\u0987\u0989": 393, "\u0987\u0989\u099c": 394, "\u0987\u0989\u09a8\u09bf": 395, "\u0987\u0989\u09f0\u09cb": 396, "\u0987\u0989\u09f0\u09cb\u09aa": 397, "\u0987\u0989\u09f0\u09cb\u09aa\u09c0\u09af\u09bc": 398, "\u0987\u0989\u09f0\u09cb\u09aa\u09f0": 399, "\u0987\u099a\u09cd\u099b\u09be": 400, "\u0987\u099b\u09b2\u09be": 401, "\u0987\u099b\u09b2\u09be\u09ae": 402, "\u0987\u099e\u09cd\u099a\u09bf": 403, "\u0987\u099e\u09cd\u099c\u09bf": 404, "\u0987\u099f": 405, "\u0987\u09a3\u09cd\u099f\u09be\u09f0": 406, "\u0987\u09a3\u09cd\u099f\u09be\u09f0\u09a8\u09c7": 407, "\u0987\u09a3\u09cd\u09a1": 408, "\u0987\u09a3\u09cd\u09a1\u09bf": 409, "\u0987\u09a3\u09cd\u09a1\u09bf\u09af\u09bc\u09be": 410, "\u0987\u09a4\u09bf": 411, "\u0987\u09a4\u09bf\u09ae\u09a7\u09cd\u09af": 412, "\u0987\u09a4\u09bf\u09ae\u09a7\u09cd\u09af\u09c7": 413, "\u0987\u09a4\u09bf\u09b9\u09be": 414, "\u0987\u09a4\u09bf\u09b9\u09be\u09b8": 415, "\u0987\u09a4\u09bf\u09b9\u09be\u09b8\u09f0": 416, "\u0987\u09a4\u09cd\u09af\u09be": 417, "\u0987\u09a4\u09cd\u09af\u09be\u09a6\u09bf": 418, "\u0987\u09a8": 419, "\u0987\u09a8\u09cd": 420, "\u0987\u09a8\u09cd\u09a6\u09bf": 421, "\u0987\u09a8\u09cd\u09a6\u09cd\u09f0": 422, "\u0987\u09a8\u09cd\u09b8\u09c1": 423, "\u0987\u09a8\u09cd\u09b8\u09c1\u09f0\u09c7\u099e\u09cd\u099a": 424, "\u0987\u09ab\u09be\u09b2\u09c7": 425, "\u0987\u09ae\u09be\u09a8": 426, "\u0987\u09af\u09bc\u09be": 427, "\u0987\u09af\u09bc\u09be\u0995": 428, "\u0987\u09af\u09bc\u09be\u09a4": 429, "\u0987\u09af\u09bc\u09be\u09f0": 430, "\u0987\u09af\u09bc\u09be\u09f0\u09c7": 431, "\u0987\u09af\u09bc\u09be\u09f0\u09cb\u09aa\u09f0\u09bf": 432, "\u0987\u09b2\u09c7": 433, "\u0987\u09b7\u09cd\u099f": 434, "\u0987\u09b9\u0981": 435, "\u0987\u09b9\u0981\u09a4\u0995": 436, "\u0987\u09b9\u0981\u09a4\u09c7": 437, "\u0987\u09b9\u0981\u09a4\u09f0": 438, "\u0987\u09df\u09be": 439, "\u0987\u09df\u09be\u09a4": 440, "\u0987\u09df\u09be\u09a4\u09c7": 441, "\u0987\u09df\u09be\u09f0": 442, "\u0987\u09f0": 443, "\u0988\u09b6\u09cd\u09ac": 444, "\u0988\u09b6\u09cd\u09ac\u09f0": 445, "\u0988\u09b6\u09cd\u09ac\u09f0\u09f0": 446, "\u0989\u0987": 447, "\u0989\u0995\u09cd\u09a4": 448, "\u0989\u099a\u09cd\u099a": 449, "\u0989\u099a\u09cd\u099a\u09a4\u09be": 450, "\u0989\u099a\u09cd\u099a\u09a4\u09f0": 451, "\u0989\u099c": 452, "\u0989\u099c\u09a8\u09bf": 453, "\u0989\u099c\u09cd": 454, "\u0989\u099f\u09be\u09f0": 455, "\u0989\u09a0": 456, "\u0989\u09a0\u09be": 457, "\u0989\u09a0\u09bf": 458, "\u0989\u09a0\u09bf\u099b\u09bf\u09b2\u0964": 459, "\u0989\u09a0\u09bf\u099b\u09c7\u0964": 460, "\u0989\u09a0\u09c7": 461, "\u0989\u09a0\u09c7\u0964": 462, "\u0989\u09a3\u09cd\u09a1\u09c7": 463, "\u0989\u09a4\u09cd": 464, "\u0989\u09a4\u09cd\u09a4\u09c0\u09f0\u09cd\u09a3": 465, "\u0989\u09a4\u09cd\u09a4\u09cb": 466, "\u0989\u09a4\u09cd\u09a4\u09f0": 467, "\u0989\u09a4\u09cd\u09a4\u09f0\u09aa\u09c2\u09ac": 468, "\u0989\u09a4\u09cd\u09a4\u09f0\u09be": 469, "\u0989\u09a6": 470, "\u0989\u09a6\u09af\u09be": 471, "\u0989\u09a6\u09af\u09be\u09aa\u09a8": 472, "\u0989\u09a6\u09be": 473, "\u0989\u09a6\u09be\u09b9\u09f0\u09a3": 474, "\u0989\u09a6\u09cd": 475, "\u0989\u09a6\u09cd\u09a6\u09c7\u09b6": 476, "\u0989\u09a6\u09cd\u09a6\u09c7\u09b6\u09cd\u09af": 477, "\u0989\u09a6\u09cd\u09a7": 478, "\u0989\u09a6\u09cd\u09a7\u09be\u09f0": 479, "\u0989\u09a6\u09cd\u09ac": 480, "\u0989\u09a6\u09cd\u09ac\u09cb": 481, "\u0989\u09a6\u09cd\u09ad\u09bf": 482, "\u0989\u09a6\u09cd\u09ad\u09bf\u09a6": 483, "\u0989\u09a6\u09cd\u09ad\u09bf\u09a6\u09f0": 484, "\u0989\u09a6\u09cd\u09ad\u09f1": 485, "\u0989\u09a6\u09cd\u09af": 486, "\u0989\u09a6\u09cd\u09af\u09be\u09a8": 487, "\u0989\u09a6\u09cd\u09af\u09be\u09a8\u09f0": 488, "\u0989\u09a6\u09cd\u09af\u09cb\u0997": 489, "\u0989\u09a6\u09cd\u09af\u09cb\u0997\u09a4": 490, "\u0989\u09a8": 491, "\u0989\u09a8\u09a4\u09cd\u09f0\u09bf\u09b6": 492, "\u0989\u09a8\u09c8\u099a": 493, "\u0989\u09a8\u09c8\u099a\u09b6": 494, "\u0989\u09a8\u09c8\u09b6": 495, "\u0989\u09a8\u09c8\u09b6\u0986\u09a0": 496, "\u0989\u09a8\u09c8\u09b6\u098f\u0995": 497, "\u0989\u09a8\u09c8\u09b6\u099a\u09be\u09f0\u09bf\u099f\u09be": 498, "\u0989\u09a8\u09c8\u09b6\u099a\u09be\u09f0\u09bf\u099f\u09be\u099a\u09a8\u09a4": 499, "\u0989\u09a8\u09c8\u09b6\u099b\u09df": 500, "\u0989\u09a8\u09c8\u09b6\u09a4\u09bf\u09a8\u09bf": 501, "\u0989\u09a8\u09c8\u09b6\u09a6\u09c1\u0987": 502, "\u0989\u09a8\u09c8\u09b6\u09a8\u09ac\u09cd\u09ac\u09c8": 503, "\u0989\u09a8\u09c8\u09b6\u09a8\u09b9\u09df": 504, "\u0989\u09a8\u09c8\u09b6\u09aa\u09be\u0981\u099a": 505, "\u0989\u09a8\u09c8\u09b6\u09b6": 506, "\u0989\u09a8\u09cd": 507, "\u0989\u09a8\u09cd\u09a8": 508, "\u0989\u09a8\u09cd\u09a8\u09a4": 509, "\u0989\u09a8\u09cd\u09a8\u09af\u09bc\u09a8": 510, "\u0989\u09aa": 511, "\u0989\u09aa\u09a4\u09cd\u09af": 512, "\u0989\u09aa\u09a8\u09cd\u09af\u09be": 513, "\u0989\u09aa\u09a8\u09cd\u09af\u09be\u09b8": 514, "\u0989\u09aa\u09ad\u09cb\u0997": 515, "\u0989\u09aa\u09af\u09c1\u0995\u09cd\u09a4": 516, "\u0989\u09aa\u09b2": 517, "\u0989\u09aa\u09b2\u09ac\u09cd": 518, "\u0989\u09aa\u09b2\u09ac\u09cd\u09a7": 519, "\u0989\u09aa\u09b8\u09cd\u09a5\u09bf\u09a4": 520, "\u0989\u09aa\u09b9\u09be\u09f0": 521, "\u0989\u09aa\u09be": 522, "\u0989\u09aa\u09be\u09a6\u09be\u09a8": 523, "\u0989\u09aa\u09be\u09a7\u09bf": 524, "\u0989\u09aa\u09be\u09af\u09bc": 525, "\u0989\u09aa\u09be\u09b8": 526, "\u0989\u09aa\u09be\u09b8\u09a8\u09be": 527, "\u0989\u09aa\u09be\u09f0\u09cd": 528, "\u0989\u09aa\u09f0\u09bf": 529, "\u0989\u09aa\u09f0\u09bf\u0993": 530, "\u0989\u09ad": 531, "\u0989\u09ad\u09a4\u09bf": 532, "\u0989\u09ae": 533, "\u0989\u09ae\u09be\u09a8": 534, "\u0989\u09b2": 535, "\u0989\u09b2\u09bf": 536, "\u0989\u09b2\u09bf\u09af\u09bc\u09be": 537, "\u0989\u09b2\u09bf\u09af\u09bc\u09be\u0987": 538, "\u0989\u09b2\u09cd": 539, "\u0989\u09b2\u09cd\u09b2\u09c7": 540, "\u0989\u09b2\u09cd\u09b2\u09c7\u0996": 541, "\u0989\u09b2\u09cd\u09b2\u09c7\u0996\u09a8": 542, "\u0989\u09b2\u09cd\u09b2\u09c7\u0996\u09a8\u09c0\u09af\u09bc": 543, "\u0989\u09b2\u09cd\u09b2\u09c7\u0996\u09af\u09cb\u0997\u09cd\u09af": 544, "\u0989\u09b7\u09cd\u09a3": 545, "\u0989\u09b9": 546, "\u0989\u09ce": 547, "\u0989\u09ce\u09aa\u09a4\u09cd\u09a4\u09bf": 548, "\u0989\u09ce\u09aa\u09be\u09a6": 549, "\u0989\u09ce\u09aa\u09be\u09a6\u09a8": 550, "\u0989\u09ce\u09aa\u09be\u09a6\u09a8\u09f0": 551, "\u0989\u09ce\u09b8": 552, "\u0989\u09ce\u09b8\u09f1": 553, "\u0989\u09ce\u09b8\u09f1\u0964": 554, "\u0989\u09ce\u09b8\u09f1\u09a4": 555, "\u0989\u09ce\u09b8\u09f1\u09f0": 556, "\u0989\u09f0": 557, "\u0989\u09f0\u09bf": 558, "\u0989\u09f0\u09cd": 559, "\u098a\u09a8": 560, "\u098a\u09a8\u09c8\u099b": 561, "\u098a\u09a8\u09c8\u099b\u09b6": 562, "\u098a\u09a8\u09c8\u09b6": 563, "\u098a\u09a8\u09c8\u09b6\u09b6": 564, "\u098b\u09a3": 565, "\u098b\u09a4\u09c1": 566, "\u098b\u09b7\u09bf": 567, "\u098f\u0987": 568, "\u098f\u0987\u0996\u09a8": 569, "\u098f\u0987\u0996\u09bf\u09a8\u09bf": 570, "\u098f\u0987\u099a": 571, "\u098f\u0987\u099f\u09cb": 572, "\u098f\u0987\u09a6\u09f0\u09c7": 573, "\u098f\u0987\u09ab\u09be\u09b2\u09c7": 574, "\u098f\u0987\u09ac\u09be\u09f0": 575, "\u098f\u0987\u09ac\u09bf\u09a7": 576, "\u098f\u0987\u09ac\u09bf\u09b2\u09be\u0995": 577, "\u098f\u0987\u09ac\u09cb\u09f0": 578, "\u098f\u0987\u09ac\u09cb\u09f0\u09f0": 579, "\u098f\u0993\u0981": 580, "\u098f\u0995": 581, "\u098f\u0995\u0995": 582, "\u098f\u0995\u09a6\u09ae": 583, "\u098f\u0995\u09ae\u09be\u09a4\u09cd\u09f0": 584, "\u098f\u0995\u09be": 585, "\u098f\u0995\u09be\u0989": 586, "\u098f\u0995\u09be\u09a1\u09c7": 587, "\u098f\u0995\u09be\u09a7\u09bf\u0995": 588, "\u098f\u0995\u09c7": 589, "\u098f\u0995\u09c7\u0987": 590, "\u098f\u0995\u09c7\u099f\u09be": 591, "\u098f\u0995\u09c7\u09ac\u09be\u09f0\u09c7": 592, "\u098f\u0995\u09c7\u09b2\u0997\u09c7": 593, "\u098f\u0995\u09c8": 594, "\u098f\u0995\u09cb": 595, "\u098f\u0995\u09cb\u099f\u09be": 596, "\u098f\u0995\u09cd": 597, "\u098f\u0995\u09cd\u09b8": 598, "\u098f\u0996\u09a8": 599, "\u098f\u0996\u09a8\u09f0": 600, "\u098f\u0996\u09c7": 601, "\u098f\u0996\u09c7\u09a4\u09f0": 602, "\u098f\u0997\u09f0\u09be\u0995\u09c0": 603, "\u098f\u0998": 604, "\u098f\u0998\u09be\u09f0": 605, "\u098f\u0998\u09be\u09f0\u099a\u09a8\u09f0": 606, "\u098f\u099a": 607, "\u098f\u099a\u09bf": 608, "\u098f\u099b": 609, "\u098f\u099b\u09bf": 610, "\u098f\u099b\u09bf\u09af\u09bc\u09be": 611, "\u098f\u099b\u09bf\u09af\u09bc\u09be\u09f0": 612, "\u098f\u099c\u09a8": 613, "\u098f\u099c\u09a8\u09c0": 614, "\u098f\u099c\u09a8\u09c7": 615, "\u098f\u099c\u09a8\u09f0": 616, "\u098f\u099f\u09be": 617, "\u098f\u099f\u09be\u0987": 618, "\u098f\u099f\u09be\u09a4": 619, "\u098f\u099f\u09be\u09f0": 620, "\u098f\u099f\u09bf": 621, "\u098f\u09a1": 622, "\u098f\u09a1\u09be\u09b2": 623, "\u098f\u09a3\u09cd\u09a1": 624, "\u098f\u09a4\u09bf": 625, "\u098f\u09a4\u09bf\u09af\u09bc\u09be": 626, "\u098f\u09a4\u09bf\u09af\u09bc\u09be\u0993": 627, "\u098f\u09a4\u09bf\u09df\u09be": 628, "\u098f\u09a4\u09bf\u09df\u09be\u0993": 629, "\u098f\u09a6\u09bf\u09a8": 630, "\u098f\u09a8": 631, "\u098f\u09a8\u09bf": 632, "\u098f\u09a8\u09bf\u09ae\u09c7": 633, "\u098f\u09a8\u09c7": 634, "\u098f\u09a8\u09c7\u0987": 635, "\u098f\u09a8\u09c7\u0995\u09c1\u09f1\u09be": 636, "\u098f\u09a8\u09c7\u0995\u09c7": 637, "\u098f\u09a8\u09c7\u09a6\u09f0\u09c7": 638, "\u098f\u09aa": 639, "\u098f\u09aa\u09cd\u09f0": 640, "\u098f\u09aa\u09cd\u09f0\u09bf\u09b2": 641, "\u098f\u09aa\u09cd\u09f0\u09bf\u09b2\u09a4": 642, "\u098f\u09ab": 643, "\u098f\u09ac\u099b\u09f0": 644, "\u098f\u09ac\u09be\u09f0": 645, "\u098f\u09ac\u09bf\u09a7": 646, "\u098f\u09ae": 647, "\u098f\u09af\u09bc\u09be": 648, "\u098f\u09b2": 649, "\u098f\u09b2\u09ac\u09be": 650, "\u098f\u09b2\u09ac\u09be\u09ae": 651, "\u098f\u09b2\u09c7": 652, "\u098f\u09b6": 653, "\u098f\u09b8\u09ae\u09af\u09bc\u09a4": 654, "\u098f\u09df\u09be\u09f0": 655, "\u098f\u09df\u09be\u09f0\u099f\u09c7": 656, "\u098f\u09df\u09be\u09f0\u099f\u09c7\u09b2": 657, "\u098f\u09f0": 658, "\u098f\u09f0\u09bf": 659, "\u0990\u09a4\u09bf": 660, "\u0990\u09a4\u09bf\u09b9\u09be\u09b8\u09bf\u0995": 661, "\u0990\u09a4\u09bf\u09b9\u09cd\u09af": 662, "\u0993\u0981": 663, "\u0993\u0981\u09a0\u09f0": 664, "\u0993\u0981\u09a0\u09f0\u09b6": 665, "\u0993\u0995": 666, "\u0993\u0996": 667, "\u0993\u099a": 668, "\u0993\u099a\u09f0": 669, "\u0993\u099a\u09f0\u09a4": 670, "\u0993\u099a\u09f0\u09a4\u09c7": 671, "\u0993\u099a\u09f0\u09b2\u09c8": 672, "\u0993\u099a\u09f0\u09f0": 673, "\u0993\u099c\u09a8": 674, "\u0993\u099c\u09be": 675, "\u0993\u09a0\u09f0": 676, "\u0993\u09a0\u09f0\u09b6": 677, "\u0993\u09aa\u09f0": 678, "\u0993\u09aa\u09f0\u09a4": 679, "\u0993\u09aa\u09f0\u09f0": 680, "\u0993\u09b2": 681, "\u0993\u09b2\u09be": 682, "\u0993\u09b2\u09be\u0987": 683, "\u0993\u09b2\u09cb\u09f1\u09be": 684, "\u0993\u09f1\u09be": 685, "\u0993\u09f1\u09be\u09f0": 686, "\u0994\u09b7": 687, "\u0994\u09b7\u09a7": 688, "\u0995\u0964": 689, "\u0995\u0981": 690, "\u0995\u0982": 691, "\u0995\u0982\u0997\u09cd\u09f0\u09c7": 692, "\u0995\u0982\u0997\u09cd\u09f0\u09c7\u099b": 693, "\u0995\u0982\u0997\u09cd\u09f0\u09c7\u099b\u09f0": 694, "\u0995\u0987": 695, "\u0995\u0993\u0981": 696, "\u0995\u0993\u0995": 697, "\u0995\u0995": 698, "\u0995\u0995\u09be": 699, "\u0995\u099b\u09be\u09f0\u09c0": 700, "\u0995\u099f": 701, "\u0995\u099f\u09a8": 702, "\u0995\u099f\u09be": 703, "\u0995\u09a0": 704, "\u0995\u09a0\u09bf": 705, "\u0995\u09a0\u09bf\u09a8": 706, "\u0995\u09a0\u09cb\u09f0": 707, "\u0995\u09a2\u09bc": 708, "\u0995\u09a2\u09bc\u09bf\u09af\u09bc\u09be\u0987": 709, "\u0995\u09a3\u09c0": 710, "\u0995\u09a3\u09cd": 711, "\u0995\u09a3\u09cd\u09a0": 712, "\u0995\u09a4": 713, "\u0995\u09a5": 714, "\u0995\u09a5\u09be": 715, "\u0995\u09a5\u09be\u099f\u09cb": 716, "\u0995\u09a5\u09be\u09ac\u09cb\u09f0": 717, "\u0995\u09a8": 718, "\u0995\u09a8\u09cd\u09af\u09be": 719, "\u0995\u09aa\u09bf": 720, "\u0995\u09ac": 721, "\u0995\u09ac\u09b2\u09c8": 722, "\u0995\u09ac\u09bf": 723, "\u0995\u09ac\u09bf\u09a4\u09be": 724, "\u0995\u09ac\u09bf\u09a4\u09be\u09f0": 725, "\u0995\u09ae": 726, "\u0995\u09ae\u09b2": 727, "\u0995\u09ae\u09b2\u09be": 728, "\u0995\u09ae\u09be": 729, "\u0995\u09ae\u09bf": 730, "\u0995\u09ae\u09c7": 731, "\u0995\u09ae\u09cd": 732, "\u0995\u09ae\u09cd\u09aa\u09bf": 733, "\u0995\u09ae\u09cd\u09aa\u09bf\u0989\u099f\u09be\u09f0": 734, "\u0995\u09af\u09bc": 735, "\u0995\u09af\u09bc\u0964": 736, "\u0995\u09b2": 737, "\u0995\u09b2\u0995\u09be": 738, "\u0995\u09b2\u0995\u09be\u09a4\u09be": 739, "\u0995\u09b2\u09be": 740, "\u0995\u09b2\u09be\u09f0": 741, "\u0995\u09b2\u09bf": 742, "\u0995\u09b2\u09bf\u0995": 743, "\u0995\u09b2\u09bf\u0995\u09a4\u09be": 744, "\u0995\u09b2\u09bf\u09a4\u09be": 745, "\u0995\u09b2\u09c7": 746, "\u0995\u09b2\u09c7\u099c": 747, "\u0995\u09b2\u09c7\u099c\u09a4": 748, "\u0995\u09b2\u09c7\u099c\u09f0": 749, "\u0995\u09b2\u09cb": 750, "\u0995\u09b2\u09cd\u09aa": 751, "\u0995\u09b2\u09cd\u09aa\u09a8\u09be": 752, "\u0995\u09b2\u09cd\u09af\u09be": 753, "\u0995\u09be": 754, "\u0995\u09be\u0964": 755, "\u0995\u09be\u0981": 756, "\u0995\u09be\u0987": 757, "\u0995\u09be\u0989": 758, "\u0995\u09be\u0995": 759, "\u0995\u09be\u0995\u09a4": 760, "\u0995\u09be\u099c": 761, "\u0995\u09be\u099c\u09bf": 762, "\u0995\u09be\u099c\u09bf\u09f0\u0999\u09be": 763, "\u0995\u09be\u099f\u09bf": 764, "\u0995\u09be\u09a0": 765, "\u0995\u09be\u09a0\u09f0": 766, "\u0995\u09be\u09a3\u09cd\u09a1": 767, "\u0995\u09be\u09a3\u09cd\u09a1\u09f0": 768, "\u0995\u09be\u09a4": 769, "\u0995\u09be\u09a8": 770, "\u0995\u09be\u09a8\u09cd": 771, "\u0995\u09be\u09a8\u09cd\u09a4": 772, "\u0995\u09be\u09a8\u09cd\u09a6\u09bf": 773, "\u0995\u09be\u09aa": 774, "\u0995\u09be\u09aa\u09cb\u09f0": 775, "\u0995\u09be\u09ac\u09cd\u09af": 776, "\u0995\u09be\u09ae": 777, "\u0995\u09be\u09ae\u099f\u09cb": 778, "\u0995\u09be\u09ae\u09a4": 779, "\u0995\u09be\u09ae\u09be": 780, "\u0995\u09be\u09ae\u09be\u0996\u09cd\u09af\u09be": 781, "\u0995\u09be\u09ae\u09f0": 782, "\u0995\u09be\u09ae\u09f0\u09c2\u09aa": 783, "\u0995\u09be\u09b2": 784, "\u0995\u09be\u09b2\u09a4": 785, "\u0995\u09be\u09b2\u09a4\u09c7": 786, "\u0995\u09be\u09b2\u09bf": 787, "\u0995\u09be\u09b2\u09c0\u09a8": 788, "\u0995\u09be\u09b2\u09c8": 789, "\u0995\u09be\u09b2\u09f0": 790, "\u0995\u09be\u09b6": 791, "\u0995\u09be\u09b6\u09cd\u09ae": 792, "\u0995\u09be\u09b7": 793, "\u0995\u09be\u09b7\u09a4": 794, "\u0995\u09be\u09b7\u09f0": 795, "\u0995\u09be\u09b9\u09bf": 796, "\u0995\u09be\u09b9\u09bf\u09a8\u09c0": 797, "\u0995\u09be\u09b9\u09bf\u09a8\u09c0\u09f0": 798, "\u0995\u09be\u09f0": 799, "\u0995\u09be\u09f0\u0995": 800, "\u0995\u09be\u09f0\u09a3": 801, "\u0995\u09be\u09f0\u09a3\u09a4": 802, "\u0995\u09be\u09f0\u09a3\u09c7": 803, "\u0995\u09be\u09f0\u09a8": 804, "\u0995\u09be\u09f0\u09a8\u09c7": 805, "\u0995\u09be\u09f0\u09be": 806, "\u0995\u09be\u09f0\u09bf": 807, "\u0995\u09be\u09f0\u09c0": 808, "\u0995\u09be\u09f0\u09c7": 809, "\u0995\u09be\u09f0\u09cb": 810, "\u0995\u09be\u09f0\u09cd": 811, "\u0995\u09be\u09f0\u09cd\u09a1": 812, "\u0995\u09be\u09f0\u09cd\u09ac\u09bf": 813, "\u0995\u09be\u09f0\u09cd\u09af": 814, "\u0995\u09be\u09f0\u09cd\u09af\u09a8\u09bf\u09f0\u09cd\u09ac\u09be\u09b9": 815, "\u0995\u09be\u09f0\u09cd\u09af\u09b8\u09c2": 816, "\u0995\u09be\u09f0\u09cd\u09af\u09b8\u09c2\u099a\u09c0": 817, "\u0995\u09be\u09f0\u09cd\u09af\u09be\u09b2\u09af\u09bc": 818, "\u0995\u09be\u09f0\u09cd\u09af\u09cd\u09af": 819, "\u0995\u09be\u09f0\u09f0": 820, "\u0995\u09bf": 821, "\u0995\u09bf\u0982": 822, "\u0995\u09bf\u0983": 823, "\u0995\u09bf\u0983\u09ae\u09bf\u0983": 824, "\u0995\u09bf\u099b\u09c1": 825, "\u0995\u09bf\u099b\u09c1\u09a6\u09bf\u09a8": 826, "\u0995\u09bf\u099b\u09c1\u09ae\u09be\u09a8": 827, "\u0995\u09bf\u099b\u09c1\u09ae\u09be\u09a8\u09c7": 828, "\u0995\u09bf\u09a4\u09be": 829, "\u0995\u09bf\u09a4\u09be\u09aa": 830, "\u0995\u09bf\u09a4\u09be\u09aa\u0996\u09a8": 831, "\u0995\u09bf\u09a8": 832, "\u0995\u09bf\u09a8\u09bf": 833, "\u0995\u09bf\u09a8\u09c7": 834, "\u0995\u09bf\u09a8\u09cd\u09a4\u09c1": 835, "\u0995\u09bf\u09ac\u09be": 836, "\u0995\u09bf\u09ac\u09bf": 837, "\u0995\u09bf\u09ae\u09be\u09a8": 838, "\u0995\u09bf\u09ae\u09bf": 839, "\u0995\u09bf\u09af\u09bc": 840, "\u0995\u09bf\u09b2": 841, "\u0995\u09bf\u09b2\u09cb": 842, "\u0995\u09bf\u09b2\u09cb\u09ae\u09bf\u099f\u09be\u09f0": 843, "\u0995\u09bf\u09b6\u09cb\u09f0": 844, "\u0995\u09bf\u09df": 845, "\u0995\u09bf\u09df\u09a8\u09cb": 846, "\u0995\u09bf\u09f0": 847, "\u0995\u09c0": 848, "\u0995\u09c0\u09af\u09bc": 849, "\u0995\u09c0\u09af\u09bc\u09be": 850, "\u0995\u09c0\u09df\u09be": 851, "\u0995\u09c0\u09f0": 852, "\u0995\u09c0\u09f0\u09cd": 853, "\u0995\u09c1": 854, "\u0995\u09c1\u0981": 855, "\u0995\u09c1\u0995\u09c1\u09f0\u09be": 856, "\u0995\u09c1\u09a3\u09cd\u09a1": 857, "\u0995\u09c1\u09ae\u09be\u09f0": 858, "\u0995\u09c1\u09b2": 859, "\u0995\u09c1\u09dc\u09bf": 860, "\u0995\u09c1\u09dc\u09bf\u0986\u09a0": 861, "\u0995\u09c1\u09dc\u09bf\u098f\u0995": 862, "\u0995\u09c1\u09dc\u09bf\u09a8\u09b9\u09df": 863, "\u0995\u09c1\u09f0": 864, "\u0995\u09c1\u09f0\u09be": 865, "\u0995\u09c1\u09f0\u09bf": 866, "\u0995\u09c1\u09f0\u09f0": 867, "\u0995\u09c1\u09f1\u09be": 868, "\u0995\u09c1\u09f1\u09be\u0987": 869, "\u0995\u09c2": 870, "\u0995\u09c3": 871, "\u0995\u09c3\u09a4": 872, "\u0995\u09c3\u09a4\u09bf": 873, "\u0995\u09c3\u09a4\u09bf\u0995": 874, "\u0995\u09c3\u09a4\u09bf\u09f0": 875, "\u0995\u09c3\u09a4\u09cd\u09f0\u09bf": 876, "\u0995\u09c3\u09a4\u09cd\u09f0\u09bf\u09ae": 877, "\u0995\u09c3\u09b7\u0995": 878, "\u0995\u09c3\u09b7\u09bf": 879, "\u0995\u09c3\u09b7\u09cd": 880, "\u0995\u09c3\u09b7\u09cd\u099f": 881, "\u0995\u09c3\u09b7\u09cd\u09a3": 882, "\u0995\u09c3\u09b7\u09cd\u09a3\u0987": 883, "\u0995\u09c3\u09b7\u09cd\u09a3\u09f0": 884, "\u0995\u09c7": 885, "\u0995\u09c7\u0964": 886, "\u0995\u09c7\u0981\u099a": 887, "\u0995\u09c7\u0987": 888, "\u0995\u09c7\u0987\u0996\u09a8": 889, "\u0995\u09c7\u0987\u0996\u09a8\u09ae\u09be\u09a8": 890, "\u0995\u09c7\u0987\u099c\u09a8": 891, "\u0995\u09c7\u0987\u099f\u09be": 892, "\u0995\u09c7\u0987\u099f\u09be\u09ae\u09be\u09a8": 893, "\u0995\u09c7\u0987\u09a6\u09bf\u09a8": 894, "\u0995\u09c7\u0987\u09ac\u09be": 895, "\u0995\u09c7\u0987\u09ac\u09be\u0996\u09a8\u09cb": 896, "\u0995\u09c7\u0987\u09ac\u09be\u099f\u09be\u0993": 897, "\u0995\u09c7\u099f": 898, "\u0995\u09c7\u09a3\u09cd\u09a1": 899, "\u0995\u09c7\u09a4": 900, "\u0995\u09c7\u09a4\u09bf\u09af\u09bc\u09be": 901, "\u0995\u09c7\u09a4\u09bf\u09af\u09bc\u09be\u0993": 902, "\u0995\u09c7\u09a4\u09bf\u09af\u09bc\u09be\u09ac\u09be": 903, "\u0995\u09c7\u09a4\u09bf\u09df\u09be": 904, "\u0995\u09c7\u09a4\u09bf\u09df\u09be\u09ac\u09be": 905, "\u0995\u09c7\u09a8\u09c7": 906, "\u0995\u09c7\u09a8\u09c7\u0995\u09c1\u09f1\u09be": 907, "\u0995\u09c7\u09a8\u09c7\u0995\u09c7": 908, "\u0995\u09c7\u09a8\u09c7\u0995\u09c8": 909, "\u0995\u09c7\u09a8\u09cd": 910, "\u0995\u09c7\u09a8\u09cd\u09a6\u09cd\u09f0": 911, "\u0995\u09c7\u09a8\u09cd\u09a6\u09cd\u09f0\u0964": 912, "\u0995\u09c7\u09a8\u09cd\u09a6\u09cd\u09f0\u09c0\u09af\u09bc": 913, "\u0995\u09c7\u09a8\u09cd\u09a6\u09cd\u09f0\u09f0": 914, "\u0995\u09c7\u09ac\u09be": 915, "\u0995\u09c7\u09ae\u09c7": 916, "\u0995\u09c7\u09ae\u09c7\u09f0\u09be": 917, "\u0995\u09c7\u09b2": 918, "\u0995\u09c7\u09b2\u09c7": 919, "\u0995\u09c7\u09b6": 920, "\u0995\u09c7\u09f0\u09be": 921, "\u0995\u09c7\u09f0\u09c7": 922, "\u0995\u09c7\u09f1\u09b2": 923, "\u0995\u09c8": 924, "\u0995\u09c8\u0993": 925, "\u0995\u09c8\u099b\u09be": 926, "\u0995\u09c8\u099b\u09bf\u09b2": 927, "\u0995\u09c8\u099b\u09c7": 928, "\u0995\u09c8\u09af\u09bc\u09c7": 929, "\u0995\u09cb": 930, "\u0995\u09cb\u0981": 931, "\u0995\u09cb\u0981\u09f1\u09f0": 932, "\u0995\u09cb\u0995\u09f0\u09be": 933, "\u0995\u09cb\u0995\u09f0\u09be\u099d\u09be\u09f0": 934, "\u0995\u09cb\u099a": 935, "\u0995\u09cb\u099f\u09bf": 936, "\u0995\u09cb\u09a0": 937, "\u0995\u09cb\u09a4\u09cd\u09a4\u09f0": 938, "\u0995\u09cb\u09a8": 939, "\u0995\u09cb\u09a8\u099f\u09cb": 940, "\u0995\u09cb\u09a8\u09c7": 941, "\u0995\u09cb\u09a8\u09cb": 942, "\u0995\u09cb\u09a8\u09cb\u09ac\u09be": 943, "\u0995\u09cb\u09a8\u09cb\u09ac\u09be\u0987": 944, "\u0995\u09cb\u09ae\u09cd": 945, "\u0995\u09cb\u09ae\u09cd\u09aa\u09be\u09a8\u09c0": 946, "\u0995\u09cb\u09ae\u09cd\u09aa\u09be\u09a8\u09c0\u09f0": 947, "\u0995\u09cb\u09b2\u09be": 948, "\u0995\u09cb\u09b7": 949, "\u0995\u09cb\u09b7\u09f0": 950, "\u0995\u09cb\u09f0": 951, "\u0995\u09cb\u09f1": 952, "\u0995\u09cb\u09f1\u09be": 953, "\u0995\u09cb\u09f1\u09be\u099a\u09cb\u09a8": 954, "\u0995\u09cc": 955, "\u0995\u09cc\u09b6": 956, "\u0995\u09cc\u09b6\u09b2": 957, "\u0995\u09cd": 958, "\u0995\u09cd\u099f": 959, "\u0995\u09cd\u099f\u09f0": 960, "\u0995\u09cd\u09a4": 961, "\u0995\u09cd\u09a4\u09be": 962, "\u0995\u09cd\u09a4\u09bf": 963, "\u0995\u09cd\u09a4\u09f0": 964, "\u0995\u09cd\u09b0": 965, "\u0995\u09cd\u09b2": 966, "\u0995\u09cd\u09b2\u09be": 967, "\u0995\u09cd\u09b2\u09be\u09ac": 968, "\u0995\u09cd\u09b2\u09bf": 969, "\u0995\u09cd\u09b7": 970, "\u0995\u09cd\u09b7\u09a3": 971, "\u0995\u09cd\u09b7\u09a4\u09bf": 972, "\u0995\u09cd\u09b7\u09ae": 973, "\u0995\u09cd\u09b7\u09ae\u09a4\u09be": 974, "\u0995\u09cd\u09b7\u09be": 975, "\u0995\u09cd\u09b7\u09be\u09f0": 976, "\u0995\u09cd\u09b7\u09bf\u09a4": 977, "\u0995\u09cd\u09b7\u09c0": 978, "\u0995\u09cd\u09b7\u09c1": 979, "\u0995\u09cd\u09b7\u09c1\u09a6\u09cd\u09f0": 980, "\u0995\u09cd\u09b7\u09c7": 981, "\u0995\u09cd\u09b7\u09c7\u09a4\u09cd\u09f0": 982, "\u0995\u09cd\u09b7\u09c7\u09a4\u09cd\u09f0\u09a4": 983, "\u0995\u09cd\u09b7\u09c7\u09a4\u09cd\u09f0\u09f0": 984, "\u0995\u09cd\u09b7\u09c7\u09aa": 985, "\u0995\u09cd\u09b7\u09cd": 986, "\u0995\u09cd\u09b7\u09f0": 987, "\u0995\u09cd\u09b8": 988, "\u0995\u09cd\u09b8\u09be": 989, "\u0995\u09cd\u09b8\u09bf": 990, "\u0995\u09cd\u09b8\u09f0": 991, "\u0995\u09cd\u09f0": 992, "\u0995\u09cd\u09f0\u09ae": 993, "\u0995\u09cd\u09f0\u09ae\u09a4": 994, "\u0995\u09cd\u09f0\u09ae\u09c7": 995, "\u0995\u09cd\u09f0\u09bf": 996, "\u0995\u09cd\u09f0\u09bf\u0995\u09c7\u099f": 997, "\u0995\u09cd\u09f0\u09bf\u09af\u09bc\u09be": 998, "\u0995\u09cd\u09f0\u09bf\u09af\u09bc\u09be\u09f0": 999, "\u0995\u09cd\u09f0\u09bf\u09df\u09be": 1000, "\u0995\u09cd\u09f0\u09c0": 1001, "\u0995\u09cd\u09f0\u09c0\u09a1\u09bc\u09be": 1002, "\u0995\u09cd\u09f0\u09c7": 1003, "\u0995\u09df": 1004, "\u0995\u09f0": 1005, "\u0995\u09f0\u0995": 1006, "\u0995\u09f0\u0995\u0964": 1007, "\u0995\u09f0\u09a3": 1008, "\u0995\u09f0\u09a3\u09f0": 1009, "\u0995\u09f0\u09ac\u09be\u09a4": 1010, "\u0995\u09f0\u09be": 1011, "\u0995\u09f0\u09be\u0964": 1012, "\u0995\u09f0\u09be\u0987": 1013, "\u0995\u09f0\u09be\u099f\u09cb": 1014, "\u0995\u09f0\u09be\u09a4": 1015, "\u0995\u09f0\u09be\u09f0": 1016, "\u0995\u09f0\u09bf": 1017, "\u0995\u09f0\u09bf\u099b\u09bf\u09b2": 1018, "\u0995\u09f0\u09bf\u099b\u09bf\u09b2\u0964": 1019, "\u0995\u09f0\u09bf\u099b\u09c7": 1020, "\u0995\u09f0\u09bf\u099b\u09c7\u0964": 1021, "\u0995\u09f0\u09bf\u099b\u09cb": 1022, "\u0995\u09f0\u09bf\u09ac": 1023, "\u0995\u09f0\u09bf\u09ac\u0964": 1024, "\u0995\u09f0\u09bf\u09ac\u09b2\u0997\u09c0\u09af\u09bc\u09be": 1025, "\u0995\u09f0\u09bf\u09ac\u09b2\u09c8": 1026, "\u0995\u09f0\u09bf\u09ac\u09be": 1027, "\u0995\u09f0\u09bf\u09ac\u09f0": 1028, "\u0995\u09f0\u09bf\u09ae": 1029, "\u0995\u09f0\u09bf\u09b2\u09c7": 1030, "\u0995\u09f0\u09bf\u09b2\u09c7\u0964": 1031, "\u0995\u09f0\u09bf\u09b2\u09c7\u0993": 1032, "\u0995\u09f0\u09bf\u09b2\u09cb": 1033, "\u0995\u09f0\u09c0": 1034, "\u0995\u09f0\u09c7": 1035, "\u0995\u09f0\u09c7\u0964": 1036, "\u0995\u09f0\u09cb": 1037, "\u0995\u09f0\u09cb\u0981": 1038, "\u0995\u09f0\u09cb\u0981\u09a4\u09c7": 1039, "\u0995\u09f0\u09cb\u09f1\u09be": 1040, "\u0995\u09f0\u09cd": 1041, "\u0995\u09f0\u09cd\u09ae": 1042, "\u0995\u09f0\u09cd\u09ae\u09c0": 1043, "\u0996\u09a3\u09cd\u09a1": 1044, "\u0996\u09a3\u09cd\u09a1\u09a4": 1045, "\u0996\u09a3\u09cd\u09a1\u09f0": 1046, "\u0996\u09a8": 1047, "\u0996\u09a8\u0995": 1048, "\u0996\u09a8\u09a4": 1049, "\u0996\u09a8\u09b2\u09c8": 1050, "\u0996\u09a8\u09bf": 1051, "\u0996\u09a8\u09c7": 1052, "\u0996\u09a8\u09c7\u0987": 1053, "\u0996\u09a8\u09cb": 1054, "\u0996\u09a8\u09f0": 1055, "\u0996\u09ac\u09f0": 1056, "\u0996\u09b2": 1057, "\u0996\u09b2\u09be": 1058, "\u0996\u09be": 1059, "\u0996\u09be\u0987": 1060, "\u0996\u09be\u099a\u09c0": 1061, "\u0996\u09be\u09a4": 1062, "\u0996\u09be\u09a6\u09cd\u09af": 1063, "\u0996\u09be\u09a6\u09cd\u09af\u09f0": 1064, "\u0996\u09be\u09a8": 1065, "\u0996\u09be\u09a8\u09be": 1066, "\u0996\u09be\u09a8\u09cd": 1067, "\u0996\u09be\u09a8\u09f0": 1068, "\u0996\u09be\u09ac": 1069, "\u0996\u09be\u09ac\u09b2\u09c8": 1070, "\u0996\u09be\u09ae": 1071, "\u0996\u09be\u09af\u09bc\u0964": 1072, "\u0996\u09be\u09b2": 1073, "\u0996\u09be\u09b2\u09bf": 1074, "\u0996\u09be\u09b2\u09c7": 1075, "\u0996\u09be\u09f0": 1076, "\u0996\u09bf": 1077, "\u0996\u09bf\u09a8\u09bf": 1078, "\u0996\u09bf\u09b2": 1079, "\u0996\u09c0\u09f0": 1080, "\u0996\u09c1": 1081, "\u0996\u09c1\u09ac": 1082, "\u0996\u09c1\u09b2\u09bf": 1083, "\u0996\u09c7": 1084, "\u0996\u09c7\u09a4\u09bf": 1085, "\u0996\u09c7\u09b2": 1086, "\u0996\u09c7\u09b2\u09a4": 1087, "\u0996\u09c7\u09b2\u09be": 1088, "\u0996\u09c7\u09b2\u09bf": 1089, "\u0996\u09c7\u09b2\u09c1": 1090, "\u0996\u09c7\u09b2\u09c1\u09f1\u09c8": 1091, "\u0996\u09c7\u09b2\u09f0": 1092, "\u0996\u09cb": 1093, "\u0996\u09cb\u099c": 1094, "\u0996\u09cb\u09b2": 1095, "\u0996\u09cb\u09b2\u09be": 1096, "\u0996\u09cb\u09f1\u09be": 1097, "\u0996\u09cb\u09f1\u09be\u09f0": 1098, "\u0996\u09cd\u09af": 1099, "\u0996\u09cd\u09af\u09be": 1100, "\u0996\u09cd\u09af\u09be\u09a4": 1101, "\u0996\u09cd\u09af\u09be\u09a4\u09bf": 1102, "\u0996\u09cd\u09af\u09be\u09a8": 1103, "\u0996\u09cd\u09f0\u09c0": 1104, "\u0996\u09cd\u09f0\u09c0\u09b7\u09cd\u099f": 1105, "\u0996\u09cd\u09f0\u09c0\u09b7\u09cd\u099f\u09be": 1106, "\u0996\u09cd\u09f0\u09c0\u09b7\u09cd\u099f\u09be\u09a8": 1107, "\u0996\u09cd\u09f0\u09c0\u09b7\u09cd\u099f\u09be\u09ac\u09cd\u09a6": 1108, "\u0996\u09cd\u09f0\u09c0\u09b7\u09cd\u099f\u09be\u09ac\u09cd\u09a6\u09a4": 1109, "\u0996\u09f0": 1110, "\u0996\u09f0\u099a": 1111, "\u0997\u0997\u09c8": 1112, "\u0997\u0999\u09cd\u0997": 1113, "\u0997\u0999\u09cd\u0997\u09be": 1114, "\u0997\u099b": 1115, "\u0997\u099b\u09f0": 1116, "\u0997\u099c": 1117, "\u0997\u09a0": 1118, "\u0997\u09a0\u09a8": 1119, "\u0997\u09a0\u09a8\u09f0": 1120, "\u0997\u09a0\u09bf\u09a4": 1121, "\u0997\u09a0\u09bf\u09a4\u0964": 1122, "\u0997\u09a1\u09bc": 1123, "\u0997\u09a2\u09bc": 1124, "\u0997\u09a2\u09bc\u09bf": 1125, "\u0997\u09a3": 1126, "\u0997\u09a3\u09a8\u09be": 1127, "\u0997\u09a3\u09bf\u09a4": 1128, "\u0997\u09a3\u09bf\u09a4\u09f0": 1129, "\u0997\u09a3\u09c7": 1130, "\u0997\u09a3\u09c7\u09b6": 1131, "\u0997\u09a3\u09c7\u09b6\u09f0": 1132, "\u0997\u09a3\u09cd\u09af": 1133, "\u0997\u09a4": 1134, "\u0997\u09a4\u09bf": 1135, "\u0997\u09a4\u09bf\u0995\u09c7": 1136, "\u0997\u09a6\u09be": 1137, "\u0997\u09a8\u09cd\u09a4": 1138, "\u0997\u09a8\u09cd\u09a7": 1139, "\u0997\u09ad": 1140, "\u0997\u09ad\u09c0\u09f0": 1141, "\u0997\u09ae": 1142, "\u0997\u09b2": 1143, "\u0997\u09b2\u0964": 1144, "\u0997\u09b2\u09be": 1145, "\u0997\u09b2\u09c0": 1146, "\u0997\u09b2\u09c7": 1147, "\u0997\u09b2\u09cb": 1148, "\u0997\u09b2\u09cd\u09aa": 1149, "\u0997\u09be": 1150, "\u0997\u09be\u0981": 1151, "\u0997\u09be\u0981\u0993": 1152, "\u0997\u09be\u0981\u09f1": 1153, "\u0997\u09be\u0981\u09f1\u09a4": 1154, "\u0997\u09be\u0981\u09f1\u09f0": 1155, "\u0997\u09be\u0987": 1156, "\u0997\u09be\u0993\u0981": 1157, "\u0997\u09be\u0996\u09c0\u09f0": 1158, "\u0997\u09be\u09a1\u09bc": 1159, "\u0997\u09be\u09a1\u09bc\u09c0": 1160, "\u0997\u09be\u09a4": 1161, "\u0997\u09be\u09a8": 1162, "\u0997\u09be\u09a8\u09cd\u09a7": 1163, "\u0997\u09be\u09a8\u09cd\u09a7\u09c0": 1164, "\u0997\u09be\u09a8\u09cd\u09a7\u09c0\u09af\u09bc\u09c7": 1165, "\u0997\u09be\u09a8\u09cd\u09a7\u09c0\u09f0": 1166, "\u0997\u09be\u09ad": 1167, "\u0997\u09be\u09ad\u09f0\u09c1": 1168, "\u0997\u09be\u09ae\u09c0": 1169, "\u0997\u09be\u09af\u09bc": 1170, "\u0997\u09be\u09b9\u09f0\u09bf": 1171, "\u0997\u09be\u09dc": 1172, "\u0997\u09be\u09dc\u09c0": 1173, "\u0997\u09be\u09f0": 1174, "\u0997\u09be\u09f0\u09cb": 1175, "\u0997\u09be\u09f0\u09cd": 1176, "\u0997\u09be\u09f1": 1177, "\u0997\u09bf": 1178, "\u0997\u09bf\u09f0\u09bf": 1179, "\u0997\u09c0": 1180, "\u0997\u09c0\u09a4": 1181, "\u0997\u09c0\u09a4\u09a4": 1182, "\u0997\u09c0\u09a4\u09be": 1183, "\u0997\u09c0\u09a4\u09bf": 1184, "\u0997\u09c0\u09a4\u09f0": 1185, "\u0997\u09c1": 1186, "\u0997\u09c1\u099a\u09bf": 1187, "\u0997\u09c1\u099b\u09bf": 1188, "\u0997\u09c1\u099c": 1189, "\u0997\u09c1\u099c\u09f0\u09be": 1190, "\u0997\u09c1\u099f\u09bf": 1191, "\u0997\u09c1\u09a1\u09bc\u09bf": 1192, "\u0997\u09c1\u09a3": 1193, "\u0997\u09c1\u09a3\u09be": 1194, "\u0997\u09c1\u09f0": 1195, "\u0997\u09c1\u09f0\u09bf": 1196, "\u0997\u09c1\u09f0\u09c1": 1197, "\u0997\u09c1\u09f0\u09c1\u09a4\u09cd\u09ac": 1198, "\u0997\u09c1\u09f0\u09c1\u09a4\u09cd\u09ac\u09aa\u09c2\u09f0\u09cd\u09a3": 1199, "\u0997\u09c1\u09f1\u09be": 1200, "\u0997\u09c1\u09f1\u09be\u09b9\u09be\u099f": 1201, "\u0997\u09c1\u09f1\u09be\u09b9\u09be\u099f\u09c0": 1202, "\u0997\u09c1\u09f1\u09be\u09b9\u09be\u099f\u09c0\u09a4": 1203, "\u0997\u09c1\u09f1\u09be\u09b9\u09be\u099f\u09c0\u09f0": 1204, "\u0997\u09c3": 1205, "\u0997\u09c3\u09b9": 1206, "\u0997\u09c3\u09b9\u09c0\u09a4": 1207, "\u0997\u09c7": 1208, "\u0997\u09c7\u0987": 1209, "\u0997\u09c7\u099b": 1210, "\u0997\u09c8": 1211, "\u0997\u09c8\u0964": 1212, "\u0997\u09c8\u099b\u09bf\u09b2": 1213, "\u0997\u09c8\u099b\u09bf\u09b2\u0964": 1214, "\u0997\u09c8\u099b\u09bf\u09b2\u09cb": 1215, "\u0997\u09c8\u099b\u09c7": 1216, "\u0997\u09c8\u099b\u09c7\u0964": 1217, "\u0997\u09c8\u099b\u09cb": 1218, "\u0997\u09cb": 1219, "\u0997\u09cb\u0981": 1220, "\u0997\u09cb\u099a\u09f0": 1221, "\u0997\u09cb\u099f": 1222, "\u0997\u09cb\u099f\u09c7\u0987": 1223, "\u0997\u09cb\u099f\u09c7\u0987\u0996\u09bf\u09a8\u09bf": 1224, "\u0997\u09cb\u099f\u09f0": 1225, "\u0997\u09cb\u09aa\u09be\u09b2": 1226, "\u0997\u09cb\u09aa\u09c0": 1227, "\u0997\u09cb\u09ac\u09bf": 1228, "\u0997\u09cb\u09ac\u09bf\u09a8\u09cd\u09a6": 1229, "\u0997\u09cb\u09b2": 1230, "\u0997\u09cb\u09b2\u09be": 1231, "\u0997\u09cb\u09b2\u09be\u0998\u09be\u099f": 1232, "\u0997\u09cb\u09b7\u09cd\u09a0": 1233, "\u0997\u09cb\u09b8\u09cd\u09ac\u09be\u09ae\u09c0": 1234, "\u0997\u09cb\u09b9\u09be\u0981": 1235, "\u0997\u09cb\u09f1\u09be": 1236, "\u0997\u09cb\u09f1\u09be\u09b2": 1237, "\u0997\u09cb\u09f1\u09be\u09b2\u09aa\u09be\u09f0\u09be": 1238, "\u0997\u09cc": 1239, "\u0997\u09cc\u09f0": 1240, "\u0997\u09cc\u09f0\u09f1": 1241, "\u0997\u09cd": 1242, "\u0997\u09cd\u09a7": 1243, "\u0997\u09cd\u09b0": 1244, "\u0997\u09cd\u09f0": 1245, "\u0997\u09cd\u09f0\u09a8\u09cd\u09a5": 1246, "\u0997\u09cd\u09f0\u09a8\u09cd\u09a5\u0996\u09a8": 1247, "\u0997\u09cd\u09f0\u09a8\u09cd\u09a5\u09f0": 1248, "\u0997\u09cd\u09f0\u09b9": 1249, "\u0997\u09cd\u09f0\u09b9\u09a3": 1250, "\u0997\u09cd\u09f0\u09b9\u09a3\u09f0": 1251, "\u0997\u09cd\u09f0\u09b9\u09a8": 1252, "\u0997\u09cd\u09f0\u09b9\u09f0": 1253, "\u0997\u09cd\u09f0\u09be": 1254, "\u0997\u09cd\u09f0\u09be\u09ae": 1255, "\u0997\u09cd\u09f0\u09c0": 1256, "\u0997\u09cd\u09f0\u09c0\u09b7\u09cd\u09ae": 1257, "\u0997\u09cd\u09f0\u09c7": 1258, "\u0997\u09cd\u09f0\u09c7\u09aa\u09cd\u09a4\u09be\u09f0": 1259, "\u0997\u09f0": 1260, "\u0997\u09f0\u09a4": 1261, "\u0997\u09f0\u09ae": 1262, "\u0997\u09f0\u09be": 1263, "\u0997\u09f0\u09be\u0995\u09c0": 1264, "\u0997\u09f0\u09be\u0995\u09c0\u09f0": 1265, "\u0997\u09f0\u09bf": 1266, "\u0997\u09f0\u09c1": 1267, "\u0997\u09f0\u09c1\u09f0": 1268, "\u0997\u09f0\u09cd": 1269, "\u0997\u09f0\u09f0": 1270, "\u0997\u09f1\u09c7": 1271, "\u0997\u09f1\u09c7\u09b7\u09a3": 1272, "\u0997\u09f1\u09c7\u09b7\u09a3\u09be": 1273, "\u0997\u09f1\u09c7\u09b7\u09a3\u09be\u09f0": 1274, "\u0998\u099f": 1275, "\u0998\u099f\u09a8\u09be": 1276, "\u0998\u099f\u09a8\u09be\u09f0": 1277, "\u0998\u099f\u09be": 1278, "\u0998\u099f\u09bf": 1279, "\u0998\u099f\u09bf\u09a4": 1280, "\u0998\u099f\u09c7\u0964": 1281, "\u0998\u09a3\u09cd\u099f\u09be": 1282, "\u0998\u09a8": 1283, "\u0998\u09a8\u09bf\u09b7\u09cd\u09a0": 1284, "\u0998\u09a8\u09cd": 1285, "\u0998\u09a8\u09cd\u099f\u09be": 1286, "\u0998\u09be": 1287, "\u0998\u09be\u0987": 1288, "\u0998\u09be\u0987\u0995\u09c8": 1289, "\u0998\u09be\u0987\u09aa\u09a5": 1290, "\u0998\u09be\u099f": 1291, "\u0998\u09be\u09a4": 1292, "\u0998\u09c1": 1293, "\u0998\u09c2": 1294, "\u0998\u09c2\u09f0\u09be\u0987": 1295, "\u0998\u09c2\u09f0\u09bf": 1296, "\u0998\u09c7": 1297, "\u0998\u09cb": 1298, "\u0998\u09cb\u0981": 1299, "\u0998\u09cb\u09b7\u09a3\u09be": 1300, "\u0998\u09f0": 1301, "\u0998\u09f0\u09a4": 1302, "\u0998\u09f0\u09a4\u09c7": 1303, "\u0998\u09f0\u09b2\u09c8": 1304, "\u0998\u09f0\u09c1\u09f1\u09be": 1305, "\u0998\u09f0\u09c7": 1306, "\u0998\u09f0\u09f0": 1307, "\u0999\u09a4": 1308, "\u0999\u09be": 1309, "\u0999\u09bf": 1310, "\u0999\u09c1": 1311, "\u0999\u09c7": 1312, "\u0999\u09cd": 1313, "\u0999\u09cd\u0995": 1314, "\u0999\u09cd\u0997": 1315, "\u0999\u09cd\u0997\u09be": 1316, "\u0999\u09f0": 1317, "\u099a\u0995": 1318, "\u099a\u0995\u09c1": 1319, "\u099a\u0995\u09cd\u09f0": 1320, "\u099a\u099f\u09cb": 1321, "\u099a\u09a4": 1322, "\u099a\u09a4\u09c1": 1323, "\u099a\u09a4\u09c1\u09f0\u09cd\u09a5": 1324, "\u099a\u09a8": 1325, "\u099a\u09a8\u09a4": 1326, "\u099a\u09a8\u09a4\u0964": 1327, "\u099a\u09a8\u09b2\u09c8": 1328, "\u099a\u09a8\u09b2\u09c8\u0995\u09c7": 1329, "\u099a\u09a8\u09be": 1330, "\u099a\u09a8\u09be\u09f0": 1331, "\u099a\u09a8\u09c0": 1332, "\u099a\u09a8\u09cd\u09a6": 1333, "\u099a\u09a8\u09cd\u09a6\u09cd\u09f0": 1334, "\u099a\u09a8\u09f0": 1335, "\u099a\u09ac": 1336, "\u099a\u09ae": 1337, "\u099a\u09ae\u09c1": 1338, "\u099a\u09b2": 1339, "\u099a\u09b2\u099a\u09cd\u099a": 1340, "\u099a\u09b2\u099a\u09cd\u099a\u09bf\u09a4\u09cd\u09f0": 1341, "\u099a\u09b2\u099a\u09cd\u099a\u09bf\u09a4\u09cd\u09f0\u09a4": 1342, "\u099a\u09b2\u099a\u09cd\u099a\u09bf\u09a4\u09cd\u09f0\u09f0": 1343, "\u099a\u09b2\u09be": 1344, "\u099a\u09b2\u09be\u0987": 1345, "\u099a\u09b2\u09bf": 1346, "\u099a\u09b2\u09c7": 1347, "\u099a\u09b2\u09c7\u0964": 1348, "\u099a\u09b2\u09cb\u09f1\u09be": 1349, "\u099a\u09b2\u09cd\u09b2\u09bf": 1350, "\u099a\u09b2\u09cd\u09b2\u09bf\u099b": 1351, "\u099a\u09b2\u09cd\u09b2\u09bf\u09b6": 1352, "\u099a\u09b9": 1353, "\u099a\u09b9\u0995\u09c0": 1354, "\u099a\u09b9\u09f0": 1355, "\u099a\u09b9\u09f0\u09a4": 1356, "\u099a\u09b9\u09f0\u09f0": 1357, "\u099a\u09be": 1358, "\u099a\u09be\u0982": 1359, "\u099a\u09be\u0987": 1360, "\u099a\u09be\u0987\u0995\u09c7\u09b2": 1361, "\u099a\u09be\u0989": 1362, "\u099a\u09be\u0989\u09b2": 1363, "\u099a\u09be\u0993": 1364, "\u099a\u09be\u0995\u09f0\u09bf": 1365, "\u099a\u09be\u0997\u09c7": 1366, "\u099a\u09be\u09a4": 1367, "\u099a\u09be\u09a8": 1368, "\u099a\u09be\u09a8\u09cd": 1369, "\u099a\u09be\u09aa": 1370, "\u099a\u09be\u09ac": 1371, "\u099a\u09be\u09ac\u09b2\u09c8": 1372, "\u099a\u09be\u09ae": 1373, "\u099a\u09be\u09b2": 1374, "\u099a\u09be\u09b9": 1375, "\u099a\u09be\u09b9\u09be": 1376, "\u099a\u09be\u09b9\u09bf": 1377, "\u099a\u09be\u09b9\u09bf\u09a6\u09be": 1378, "\u099a\u09be\u09f0": 1379, "\u099a\u09be\u09f0\u09bf": 1380, "\u099a\u09be\u09f0\u09bf\u0993": 1381, "\u099a\u09be\u09f0\u09bf\u0993\u09ab\u09be\u09b2\u09c7": 1382, "\u099a\u09be\u09f0\u09bf\u099f\u09be": 1383, "\u099a\u09be\u09f0\u09bf\u099f\u09be\u099a\u09a8\u09a4": 1384, "\u099a\u09be\u09f0\u09bf\u099f\u09be\u099a\u09a8\u09f0": 1385, "\u099a\u09be\u09f0\u09bf\u099f\u09be\u09a8": 1386, "\u099a\u09be\u09f0\u09bf\u099f\u09be\u09a8\u09b9\u09df": 1387, "\u099a\u09be\u09f0\u09c0": 1388, "\u099a\u09be\u09f0\u09c7": 1389, "\u099a\u09be\u09f0\u09cd": 1390, "\u099a\u09be\u09f0\u09cd\u099c": 1391, "\u099a\u09be\u09f0\u09cd\u09ad\u09bf": 1392, "\u099a\u09be\u09f0\u09cd\u09af": 1393, "\u099a\u09bf": 1394, "\u099a\u09bf\u0982": 1395, "\u099a\u09bf\u0995": 1396, "\u099a\u09bf\u0995\u09be\u09f0": 1397, "\u099a\u09bf\u0995\u09bf": 1398, "\u099a\u09bf\u0995\u09bf\u09ce": 1399, "\u099a\u09bf\u0995\u09bf\u09ce\u09b8": 1400, "\u099a\u09bf\u0995\u09bf\u09ce\u09b8\u0995": 1401, "\u099a\u09bf\u0995\u09bf\u09ce\u09b8\u09be": 1402, "\u099a\u09bf\u0995\u09bf\u09ce\u09b8\u09be\u09f0": 1403, "\u099a\u09bf\u099f\u09bf": 1404, "\u099a\u09bf\u09a0\u09bf": 1405, "\u099a\u09bf\u09a4": 1406, "\u099a\u09bf\u09a4\u09cd\u09f0": 1407, "\u099a\u09bf\u09a4\u09cd\u09f0\u09a8\u09be\u099f\u09cd\u09af": 1408, "\u099a\u09bf\u09a8": 1409, "\u099a\u09bf\u09a8\u09be": 1410, "\u099a\u09bf\u09a8\u09bf": 1411, "\u099a\u09bf\u09a8\u09c7": 1412, "\u099a\u09bf\u09a8\u09c7\u09ae\u09be": 1413, "\u099a\u09bf\u09a8\u09cd": 1414, "\u099a\u09bf\u09a8\u09cd\u09a4\u09be": 1415, "\u099a\u09bf\u09ae": 1416, "\u099a\u09bf\u09af\u09bc\u09be": 1417, "\u099a\u09bf\u09b2": 1418, "\u099a\u09bf\u09b9\u09cd": 1419, "\u099a\u09bf\u09b9\u09cd\u09a8": 1420, "\u099a\u09bf\u09f0": 1421, "\u099a\u09bf\u09f0\u09bf": 1422, "\u099a\u09c0": 1423, "\u099a\u09c0\u09a8": 1424, "\u099a\u09c0\u09a8\u09a4": 1425, "\u099a\u09c0\u09a8\u09be": 1426, "\u099a\u09c0\u09a8\u09f0": 1427, "\u099a\u09c1": 1428, "\u099a\u09c1\u0987": 1429, "\u099a\u09c1\u0995\u09cd\u09a4\u09bf": 1430, "\u099a\u09c1\u099f\u09bf": 1431, "\u099a\u09c1\u09a4\u09c0\u09af\u09bc\u09be": 1432, "\u099a\u09c1\u09f0": 1433, "\u099a\u09c2": 1434, "\u099a\u09c7": 1435, "\u099a\u09c7\u0987": 1436, "\u099a\u09c7\u0995": 1437, "\u099a\u09c7\u09a4": 1438, "\u099a\u09c7\u09a8\u09bf": 1439, "\u099a\u09c7\u09a8\u09c7": 1440, "\u099a\u09c7\u09a8\u09c7\u09b2": 1441, "\u099a\u09c7\u09a8\u09cd": 1442, "\u099a\u09c7\u09b2": 1443, "\u099a\u09c7\u09b7\u09cd\u099f\u09be": 1444, "\u099a\u09c8": 1445, "\u099a\u09c8\u09a7\u09cd\u09af": 1446, "\u099a\u09cb": 1447, "\u099a\u09cb\u09a8": 1448, "\u099a\u09cb\u09f1\u09be": 1449, "\u099a\u09cc": 1450, "\u099a\u09cc\u09a7\u09c1": 1451, "\u099a\u09cc\u09a7\u09c1\u09f0\u09c0": 1452, "\u099a\u09cc\u09b9": 1453, "\u099a\u09cd": 1454, "\u099a\u09cd\u099a": 1455, "\u099a\u09cd\u099b": 1456, "\u099a\u09cd\u099b\u09be": 1457, "\u099a\u09cd\u099b\u09c7": 1458, "\u099a\u09cd\u099b\u09c7\u09a6": 1459, "\u099a\u09f0": 1460, "\u099a\u09f0\u0995\u09be\u09f0": 1461, "\u099a\u09f0\u0995\u09be\u09f0\u09c0": 1462, "\u099a\u09f0\u0995\u09be\u09f0\u09c7": 1463, "\u099a\u09f0\u0995\u09be\u09f0\u09f0": 1464, "\u099a\u09f0\u09a3": 1465, "\u099a\u09f0\u09be": 1466, "\u099a\u09f0\u09be\u0987": 1467, "\u099a\u09f0\u09be\u0987\u09f0": 1468, "\u099a\u09f0\u09bf": 1469, "\u099a\u09f0\u09bf\u09a4": 1470, "\u099a\u09f0\u09bf\u09a4\u09cd\u09f0": 1471, "\u099a\u09f0\u09bf\u09a4\u09cd\u09f0\u09a4": 1472, "\u099a\u09f0\u09bf\u09a4\u09cd\u09f0\u09f0": 1473, "\u099a\u09f0\u09cd": 1474, "\u099a\u09f0\u09cd\u099a\u09be": 1475, "\u099b\u099f\u09be": 1476, "\u099b\u09a4": 1477, "\u099b\u09a8": 1478, "\u099b\u09a8\u09c7": 1479, "\u099b\u09a8\u09cd\u09a6": 1480, "\u099b\u09a8\u09f0": 1481, "\u099b\u09aa\u09be": 1482, "\u099b\u09ac\u09bf": 1483, "\u099b\u09ac\u09bf\u0964": 1484, "\u099b\u09ac\u09bf\u0996\u09a8": 1485, "\u099b\u09ac\u09bf\u0996\u09a8\u09a4": 1486, "\u099b\u09ac\u09bf\u0996\u09a8\u09c7": 1487, "\u099b\u09ac\u09bf\u0996\u09a8\u09f0": 1488, "\u099b\u09ac\u09bf\u09a4": 1489, "\u099b\u09ac\u09bf\u09f0": 1490, "\u099b\u09af\u09bc": 1491, "\u099b\u09b2\u09be": 1492, "\u099b\u09be": 1493, "\u099b\u09be\u0987": 1494, "\u099b\u09be\u0997\u09b2\u09c0": 1495, "\u099b\u09be\u09a4\u09cd\u09f0": 1496, "\u099b\u09be\u09a4\u09cd\u09f0\u09c0": 1497, "\u099b\u09be\u09b2": 1498, "\u099b\u09be\u09f0": 1499, "\u099b\u09be\u09f0\u09c0": 1500, "\u099b\u09be\u09f0\u09cd": 1501, "\u099b\u09bf": 1502, "\u099b\u09bf\u0995": 1503, "\u099b\u09bf\u0995\u09cd\u09b8": 1504, "\u099b\u09bf\u09a8\u09cd\u09a8": 1505, "\u099b\u09bf\u09af\u09bc\u09be": 1506, "\u099b\u09bf\u09b2": 1507, "\u099b\u09bf\u09b2\u0964": 1508, "\u099b\u09bf\u09b2\u09c7": 1509, "\u099b\u09bf\u09b2\u09cb": 1510, "\u099b\u09bf\u09b2\u09cb\u0964": 1511, "\u099b\u09c0": 1512, "\u099b\u09c1": 1513, "\u099b\u09c7": 1514, "\u099b\u09c7\u0964": 1515, "\u099b\u09c7\u0987": 1516, "\u099b\u09c7\u09aa\u09cd": 1517, "\u099b\u09c7\u09aa\u09cd\u099f\u09c7": 1518, "\u099b\u09cb": 1519, "\u099b\u09cb\u0964": 1520, "\u099b\u09cb\u0981": 1521, "\u099b\u09cb\u09f1": 1522, "\u099b\u09cb\u09f1\u09be": 1523, "\u099b\u09cb\u09f1\u09be\u09a4": 1524, "\u099b\u09cb\u09f1\u09be\u09b2\u09c0": 1525, "\u099b\u09cb\u09f1\u09be\u09b2\u09c0\u09f0": 1526, "\u099b\u09cd": 1527, "\u099b\u09df": 1528, "\u099b\u09df\u099a\u09a8\u09a4": 1529, "\u099b\u09df\u099a\u09a8\u09f0": 1530, "\u099b\u09df\u099f\u09be": 1531, "\u099b\u09f0": 1532, "\u099c\u0982": 1533, "\u099c\u0995": 1534, "\u099c\u0997": 1535, "\u099c\u0997\u09a4": 1536, "\u099c\u0997\u09a4\u09a4": 1537, "\u099c\u0997\u09a4\u09f0": 1538, "\u099c\u099f\u09bf\u09b2": 1539, "\u099c\u09a1\u09bc\u09bf\u09a4": 1540, "\u099c\u09a1\u09bc\u09bf\u09a4\u0964": 1541, "\u099c\u09a4": 1542, "\u099c\u09a8": 1543, "\u099c\u09a8\u0964": 1544, "\u099c\u09a8\u0995": 1545, "\u099c\u09a8\u0997\u09cb\u09b7\u09cd\u09a0": 1546, "\u099c\u09a8\u0997\u09cb\u09b7\u09cd\u09a0\u09c0": 1547, "\u099c\u09a8\u0997\u09cb\u09b7\u09cd\u09a0\u09c0\u09f0": 1548, "\u099c\u09a8\u099c\u09be\u09a4\u09bf": 1549, "\u099c\u09a8\u099c\u09be\u09a4\u09c0\u09af\u09bc": 1550, "\u099c\u09a8\u09aa\u09cd\u09f0\u09bf": 1551, "\u099c\u09a8\u09aa\u09cd\u09f0\u09bf\u09af\u09bc": 1552, "\u099c\u09a8\u09aa\u09cd\u09f0\u09bf\u09af\u09bc\u09a4\u09be": 1553, "\u099c\u09a8\u09b8\u0982\u0996\u09cd\u09af\u09be": 1554, "\u099c\u09a8\u09b8\u0982\u0996\u09cd\u09af\u09be\u09f0": 1555, "\u099c\u09a8\u09be": 1556, "\u099c\u09a8\u09be\u0987": 1557, "\u099c\u09a8\u09be\u099c\u09be\u09a4": 1558, "\u099c\u09a8\u09be\u099c\u09be\u09a4\u0964": 1559, "\u099c\u09a8\u09be\u09ac": 1560, "\u099c\u09a8\u09be\u09af\u09bc\u0964": 1561, "\u099c\u09a8\u09be\u09f0": 1562, "\u099c\u09a8\u09bf\u09a4": 1563, "\u099c\u09a8\u09c0": 1564, "\u099c\u09a8\u09c7": 1565, "\u099c\u09a8\u09cd": 1566, "\u099c\u09a8\u09cd\u09a4\u09c1": 1567, "\u099c\u09a8\u09cd\u09a4\u09c1\u09f0": 1568, "\u099c\u09a8\u09cd\u09ae": 1569, "\u099c\u09a8\u09cd\u09ae\u0997\u09cd\u09f0\u09b9\u09a3": 1570, "\u099c\u09a8\u09cd\u09ae\u09f0": 1571, "\u099c\u09a8\u09f0": 1572, "\u099c\u09ac": 1573, "\u099c\u09ae\u09be": 1574, "\u099c\u09af\u09bc": 1575, "\u099c\u09af\u09bc\u09a8\u09cd\u09a4": 1576, "\u099c\u09b2": 1577, "\u099c\u09b2\u09aa\u09be\u09a8": 1578, "\u099c\u09b2\u09ac\u09be\u09af\u09bc\u09c1": 1579, "\u099c\u09b2\u09be": 1580, "\u099c\u09be": 1581, "\u099c\u09be\u0987": 1582, "\u099c\u09be\u0995": 1583, "\u099c\u09be\u09a4": 1584, "\u099c\u09be\u09a4\u09bf": 1585, "\u099c\u09be\u09a4\u09bf\u09f0": 1586, "\u099c\u09be\u09a4\u09c0\u09af\u09bc": 1587, "\u099c\u09be\u09a8": 1588, "\u099c\u09be\u09a8\u09be": 1589, "\u099c\u09be\u09a8\u09bf": 1590, "\u099c\u09be\u09a8\u09bf\u09ac": 1591, "\u099c\u09be\u09a8\u09c1\u09f1\u09be\u09f0": 1592, "\u099c\u09be\u09a8\u09c1\u09f1\u09be\u09f0\u09c0": 1593, "\u099c\u09be\u09a8\u09c1\u09f1\u09be\u09f0\u09c0\u09a4": 1594, "\u099c\u09be\u09a8\u09c7": 1595, "\u099c\u09be\u09a8\u09cb": 1596, "\u099c\u09be\u09aa\u09be\u09a8": 1597, "\u099c\u09be\u09aa\u09be\u09a8\u09c0": 1598, "\u099c\u09be\u09b2": 1599, "\u099c\u09be\u09b9\u09be": 1600, "\u099c\u09be\u09b9\u09be\u099c": 1601, "\u099c\u09be\u09f0": 1602, "\u099c\u09be\u09f0\u09cd": 1603, "\u099c\u09be\u09f0\u09cd\u09ae\u09be\u09a8": 1604, "\u099c\u09bf": 1605, "\u099c\u09bf\u0985": 1606, "\u099c\u09bf\u0995": 1607, "\u099c\u09bf\u09a4": 1608, "\u099c\u09bf\u09b2": 1609, "\u099c\u09bf\u09b2\u09be": 1610, "\u099c\u09bf\u09b2\u09be\u0996\u09a8\u09f0": 1611, "\u099c\u09bf\u09b2\u09be\u09a4": 1612, "\u099c\u09bf\u09b2\u09be\u09f0": 1613, "\u099c\u09bf\u09ce": 1614, "\u099c\u09bf\u09f0": 1615, "\u099c\u09c0": 1616, "\u099c\u09c0\u09af\u09bc": 1617, "\u099c\u09c0\u09af\u09bc\u09be\u0987": 1618, "\u099c\u09c0\u09af\u09bc\u09c7": 1619, "\u099c\u09c0\u09af\u09bc\u09f0\u09c0": 1620, "\u099c\u09c0\u09f0": 1621, "\u099c\u09c0\u09f1": 1622, "\u099c\u09c0\u09f1\u09a8": 1623, "\u099c\u09c0\u09f1\u09a8\u09a4": 1624, "\u099c\u09c0\u09f1\u09a8\u09c0": 1625, "\u099c\u09c0\u09f1\u09a8\u09f0": 1626, "\u099c\u09c0\u09f1\u09bf\u09a4": 1627, "\u099c\u09c0\u09f1\u09f0": 1628, "\u099c\u09c1": 1629, "\u099c\u09c1\u0987": 1630, "\u099c\u09c1\u09a8": 1631, "\u099c\u09c1\u09ac\u09bf\u09a8": 1632, "\u099c\u09c1\u09b2\u09be\u0987": 1633, "\u099c\u09c1\u09b2\u09be\u0987\u09a4": 1634, "\u099c\u09c1\u09b2\u09bf": 1635, "\u099c\u09c1\u09f0\u09bf": 1636, "\u099c\u09c7": 1637, "\u099c\u09c7\u0997\u09be": 1638, "\u099c\u09c7\u09a8": 1639, "\u099c\u09c7\u09a8\u09c7": 1640, "\u099c\u09c8": 1641, "\u099c\u09c8\u09a8": 1642, "\u099c\u09c8\u09f1": 1643, "\u099c\u09c8\u09f1\u09bf\u0995": 1644, "\u099c\u09cb": 1645, "\u099c\u09cb\u09aa\u09be": 1646, "\u099c\u09cb\u09f0": 1647, "\u099c\u09cb\u09f1\u09be": 1648, "\u099c\u09cd": 1649, "\u099c\u09cd\u099e": 1650, "\u099c\u09cd\u099e\u09be": 1651, "\u099c\u09cd\u099e\u09be\u09a4": 1652, "\u099c\u09cd\u099e\u09be\u09a8": 1653, "\u099c\u09cd\u099e\u09be\u09a8\u09f0": 1654, "\u099c\u09cd\u09ac": 1655, "\u099c\u09cd\u09ac\u09b2": 1656, "\u099c\u09cd\u09ac\u09b2\u09be\u0987": 1657, "\u099c\u09cd\u09ac\u09f0": 1658, "\u099c\u09cd\u09af": 1659, "\u099c\u09cd\u09af\u09be": 1660, "\u099c\u09cd\u09af\u09c7\u09b7\u09cd\u09a0": 1661, "\u099c\u09cd\u09af\u09cb": 1662, "\u099c\u09cd\u09af\u09cb\u09a4\u09bf": 1663, "\u099c\u09cd\u09af\u09f0": 1664, "\u099c\u09f0": 1665, "\u099c\u09f0\u09bf": 1666, "\u099c\u09f0\u09bf\u09af\u09bc\u09a4\u09c7": 1667, "\u099c\u09f0\u09c1": 1668, "\u099c\u09f0\u09cd": 1669, "\u099d\u09be\u09f0": 1670, "\u099e\u09be": 1671, "\u099e\u09cd": 1672, "\u099e\u09cd\u099a": 1673, "\u099e\u09cd\u099a\u09a8": 1674, "\u099e\u09cd\u099a\u09b2": 1675, "\u099e\u09cd\u099a\u09b2\u09a4": 1676, "\u099e\u09cd\u099a\u09b2\u09f0": 1677, "\u099e\u09cd\u099a\u09bf": 1678, "\u099e\u09cd\u099c": 1679, "\u099e\u09cd\u099c\u09a8": 1680, "\u099e\u09cd\u099c\u09be": 1681, "\u099e\u09cd\u099c\u09bf": 1682, "\u099e\u09cd\u099c\u09c0": 1683, "\u099f\u0995": 1684, "\u099f\u0995\u09be": 1685, "\u099f\u0995\u09be\u09f0": 1686, "\u099f\u099f\u09cb": 1687, "\u099f\u09a4": 1688, "\u099f\u09a8": 1689, "\u099f\u09a8\u09f0": 1690, "\u099f\u09b2": 1691, "\u099f\u09be": 1692, "\u099f\u09be\u0987": 1693, "\u099f\u09be\u0987\u09ae": 1694, "\u099f\u09be\u0993": 1695, "\u099f\u09be\u09a4": 1696, "\u099f\u09be\u09a8": 1697, "\u099f\u09be\u09f0": 1698, "\u099f\u09be\u09f0\u09c7": 1699, "\u099f\u09be\u09f0\u09cd": 1700, "\u099f\u09be\u09f1\u09be": 1701, "\u099f\u09bf": 1702, "\u099f\u09bf\u0982": 1703, "\u099f\u09bf\u0989": 1704, "\u099f\u09bf\u0995": 1705, "\u099f\u09bf\u0995\u099f": 1706, "\u099f\u09bf\u099b": 1707, "\u099f\u09bf\u09a4": 1708, "\u099f\u09bf\u09a8": 1709, "\u099f\u09bf\u09ad": 1710, "\u099f\u09bf\u09ad\u09bf": 1711, "\u099f\u09bf\u09ae": 1712, "\u099f\u09bf\u09b2": 1713, "\u099f\u09bf\u09f0": 1714, "\u099f\u09c0": 1715, "\u099f\u09c0\u09af\u09bc\u09be": 1716, "\u099f\u09c0\u09f0": 1717, "\u099f\u09c1": 1718, "\u099f\u09c1\u0995\u09c1\u09f0\u09be": 1719, "\u099f\u09c1\u09f0\u09bf": 1720, "\u099f\u09c1\u09f1\u09c7": 1721, "\u099f\u09c7": 1722, "\u099f\u09c7\u0987": 1723, "\u099f\u09c7\u09a8": 1724, "\u099f\u09c7\u09b2": 1725, "\u099f\u09c7\u09b2\u09bf": 1726, "\u099f\u09c7\u09b7\u09cd\u099f": 1727, "\u099f\u09c7\u09f0\u09c7": 1728, "\u099f\u09cb": 1729, "\u099f\u09cb\u0964": 1730, "\u099f\u09cb\u0993": 1731, "\u099f\u09cb\u0995": 1732, "\u099f\u09cb\u09a4": 1733, "\u099f\u09cb\u09f0": 1734, "\u099f\u09cb\u09f1\u09c7": 1735, "\u099f\u09cb\u09f1\u09c7\u0987": 1736, "\u099f\u09cd": 1737, "\u099f\u09cd\u09f0": 1738, "\u099f\u09cd\u09f0\u09be": 1739, "\u099f\u09cd\u09f0\u09bf": 1740, "\u099f\u09cd\u09f0\u09c7": 1741, "\u099f\u09cd\u09f0\u09c7\u0987": 1742, "\u099f\u09f0": 1743, "\u09a0\u09be": 1744, "\u09a0\u09be\u0987": 1745, "\u09a0\u09be\u0987\u0996\u09a8": 1746, "\u09a0\u09be\u0987\u0996\u09a8\u09f0": 1747, "\u09a0\u09be\u0987\u09a4": 1748, "\u09a0\u09be\u0987\u09a4\u09c7": 1749, "\u09a0\u09be\u0987\u09f0": 1750, "\u09a0\u09be\u0995\u09c1\u09f0": 1751, "\u09a0\u09be\u09a3\u09cd\u09a1\u09be": 1752, "\u09a0\u09be\u09af\u09bc\u09c7": 1753, "\u09a0\u09bf": 1754, "\u09a0\u09bf\u0995": 1755, "\u09a0\u09bf\u0995\u09c7\u0987": 1756, "\u09a0\u09bf\u09a4": 1757, "\u09a0\u09c0": 1758, "\u09a0\u09c7": 1759, "\u09a0\u09f0": 1760, "\u09a1\u09a4": 1761, "\u09a1\u09b2\u09be\u09f0": 1762, "\u09a1\u09bc": 1763, "\u09a1\u09bc\u09be": 1764, "\u09a1\u09bc\u09bf": 1765, "\u09a1\u09bc\u09bf\u09a4": 1766, "\u09a1\u09bc\u09c0": 1767, "\u09a1\u09be": 1768, "\u09a1\u09be\u0987": 1769, "\u09a1\u09be\u0989\u09a8": 1770, "\u09a1\u09be\u0995": 1771, "\u09a1\u09be\u0999\u09f0": 1772, "\u09a1\u09be\u09a1\u09bc\u09bf": 1773, "\u09a1\u09be\u09b2": 1774, "\u09a1\u09be\u09f0": 1775, "\u09a1\u09bf": 1776, "\u09a1\u09bf\u0982": 1777, "\u09a1\u09bf\u0985": 1778, "\u09a1\u09bf\u0997\u09cd\u09f0\u09c0": 1779, "\u09a1\u09bf\u099a\u09c7": 1780, "\u09a1\u09bf\u099a\u09c7\u09ae\u09cd\u09ac\u09f0": 1781, "\u09a1\u09bf\u099a\u09c7\u09ae\u09cd\u09ac\u09f0\u09a4": 1782, "\u09a1\u09bf\u099c\u09be\u0987": 1783, "\u09a1\u09bf\u099c\u09bf": 1784, "\u09a1\u09bf\u099c\u09bf\u099f\u09c7\u09b2": 1785, "\u09a1\u09bf\u09ac\u09cd\u09f0\u09c1": 1786, "\u09a1\u09bf\u09ac\u09cd\u09f0\u09c1\u0997\u09a1\u09bc": 1787, "\u09a1\u09bf\u09ae\u09be": 1788, "\u09a1\u09bf\u09af\u09bc\u09be": 1789, "\u09a1\u09c0": 1790, "\u09a1\u09c1": 1791, "\u09a1\u09c7": 1792, "\u09a1\u09c7\u0987": 1793, "\u09a1\u09c7\u0995\u09be": 1794, "\u09a1\u09c7\u099a": 1795, "\u09a1\u09c7\u09a8": 1796, "\u09a1\u09c7\u09b2": 1797, "\u09a1\u09c7\u09b2\u09bf": 1798, "\u09a1\u09c7\u09f0": 1799, "\u09a1\u09cb": 1800, "\u09a1\u09cd": 1801, "\u09a1\u09cd\u09f0": 1802, "\u09a1\u09cd\u09f0\u09c7": 1803, "\u09a1\u09f0": 1804, "\u09a2\u09bc": 1805, "\u09a2\u09bc\u09be": 1806, "\u09a2\u09bc\u09bf": 1807, "\u09a2\u09be": 1808, "\u09a2\u09be\u0995\u09be": 1809, "\u09a2\u09c1": 1810, "\u09a2\u09c7": 1811, "\u09a2\u09c7\u0981": 1812, "\u09a2\u09cb": 1813, "\u09a2\u09cb\u09b2": 1814, "\u09a2\u09cb\u09b2\u09f0": 1815, "\u09a3\u09a4": 1816, "\u09a3\u09be": 1817, "\u09a3\u09bf": 1818, "\u09a3\u09bf\u09a4": 1819, "\u09a3\u09c0": 1820, "\u09a3\u09c0\u09a4": 1821, "\u09a3\u09c0\u09f0": 1822, "\u09a3\u09c1": 1823, "\u09a3\u09c7": 1824, "\u09a3\u09cd": 1825, "\u09a3\u09cd\u099f": 1826, "\u09a3\u09cd\u099f\u09be": 1827, "\u09a3\u09cd\u099f\u09be\u09f0": 1828, "\u09a3\u09cd\u099f\u09bf": 1829, "\u09a3\u09cd\u09a1": 1830, "\u09a3\u09cd\u09a1\u09be": 1831, "\u09a3\u09cd\u09a1\u09be\u09f0": 1832, "\u09a3\u09cd\u09a1\u09c7": 1833, "\u09a3\u09cd\u09a1\u09f0": 1834, "\u09a3\u09cd\u09af": 1835, "\u09a3\u09f0": 1836, "\u09a3\u09f0\u09c2\u09aa\u09c7": 1837, "\u09a4\u0964": 1838, "\u09a4\u0983": 1839, "\u09a4\u0987": 1840, "\u09a4\u0995": 1841, "\u09a4\u0995\u09c8": 1842, "\u09a4\u0995\u09c8\u0993": 1843, "\u09a4\u09a4": 1844, "\u09a4\u09a4\u09cd": 1845, "\u09a4\u09a4\u09cd\u09a4\u09cd\u09ac": 1846, "\u09a4\u09a5": 1847, "\u09a4\u09a5\u09be": 1848, "\u09a4\u09a5\u09be\u09aa\u09bf": 1849, "\u09a4\u09a5\u09be\u09aa\u09bf\u0993": 1850, "\u09a4\u09a5\u09cd\u09af": 1851, "\u09a4\u09a6\u09c1": 1852, "\u09a4\u09a6\u09c1\u09aa\u09f0\u09bf": 1853, "\u09a4\u09a8": 1854, "\u09a4\u09a8\u09cd\u09a4\u09cd\u09f0": 1855, "\u09a4\u09a8\u09f0": 1856, "\u09a4\u09ae": 1857, "\u09a4\u09b2": 1858, "\u09a4\u09b2\u09a4": 1859, "\u09a4\u09b2\u09f0": 1860, "\u09a4\u09b9": 1861, "\u09a4\u09be": 1862, "\u09a4\u09be\u0964": 1863, "\u09a4\u09be\u0987": 1864, "\u09a4\u09be\u0987\u0995": 1865, "\u09a4\u09be\u0987\u09f0": 1866, "\u09a4\u09be\u0995": 1867, "\u09a4\u09be\u0995\u09c7": 1868, "\u09a4\u09be\u0995\u09c7\u0987": 1869, "\u09a4\u09be\u09a4": 1870, "\u09a4\u09be\u09a4\u09c7": 1871, "\u09a4\u09be\u09a4\u09c7\u0987": 1872, "\u09a4\u09be\u09a4\u09cb": 1873, "\u09a4\u09be\u09a4\u09cd": 1874, "\u09a4\u09be\u09aa": 1875, "\u09a4\u09be\u09ae\u09bf\u09b2": 1876, "\u09a4\u09be\u09ae\u09cb": 1877, "\u09a4\u09be\u09ae\u09cb\u09b2": 1878, "\u09a4\u09be\u09b2": 1879, "\u09a4\u09be\u09b2\u09bf": 1880, "\u09a4\u09be\u09b2\u09bf\u0995\u09be": 1881, "\u09a4\u09be\u09b2\u09bf\u0995\u09be\u09a4": 1882, "\u09a4\u09be\u09b2\u09c8": 1883, "\u09a4\u09be\u09b9": 1884, "\u09a4\u09be\u09f0": 1885, "\u09a4\u09be\u09f0\u09aa\u09be\u099b\u09a4": 1886, "\u09a4\u09be\u09f0\u09aa\u09bf\u099b\u09a4": 1887, "\u09a4\u09be\u09f0\u09aa\u09f0\u09be": 1888, "\u09a4\u09be\u09f0\u09ae\u09be\u09a8\u09c7": 1889, "\u09a4\u09be\u09f0\u09bf": 1890, "\u09a4\u09be\u09f0\u09bf\u0996": 1891, "\u09a4\u09be\u09f0\u09bf\u0996\u09c7": 1892, "\u09a4\u09be\u09f0\u09c7": 1893, "\u09a4\u09be\u09f0\u09cb\u09aa\u09f0\u09bf": 1894, "\u09a4\u09bf": 1895, "\u09a4\u09bf\u0995": 1896, "\u09a4\u09bf\u09a4": 1897, "\u09a4\u09bf\u09a4\u09be": 1898, "\u09a4\u09bf\u09a8": 1899, "\u09a4\u09bf\u09a8\u09bf": 1900, "\u09a4\u09bf\u09a8\u09bf\u0996\u09a8": 1901, "\u09a4\u09bf\u09a8\u09bf\u099a\u09c1": 1902, "\u09a4\u09bf\u09a8\u09bf\u099a\u09c1\u0995\u09c0\u09af\u09bc\u09be": 1903, "\u09a4\u09bf\u09a8\u09bf\u099c\u09a8": 1904, "\u09a4\u09bf\u09a8\u09bf\u099f\u09be": 1905, "\u09a4\u09bf\u09a8\u09bf\u09b6": 1906, "\u09a4\u09bf\u09ac\u09cd\u09ac": 1907, "\u09a4\u09bf\u09ae": 1908, "\u09a4\u09bf\u09af\u09bc\u09be": 1909, "\u09a4\u09bf\u09b2": 1910, "\u09a4\u09bf\u09df\u09be": 1911, "\u09a4\u09bf\u09f0": 1912, "\u09a4\u09bf\u09f0\u09cb": 1913, "\u09a4\u09c0": 1914, "\u09a4\u09c0\u09ac\u09cd\u09f0": 1915, "\u09a4\u09c0\u09af\u09bc\u09be": 1916, "\u09a4\u09c0\u09f0": 1917, "\u09a4\u09c0\u09f0\u09cd\u09a3": 1918, "\u09a4\u09c0\u09f0\u09cd\u09a5": 1919, "\u09a4\u09c1": 1920, "\u09a4\u09c1\u09ae\u09bf": 1921, "\u09a4\u09c1\u09b2": 1922, "\u09a4\u09c1\u09b2\u09a8\u09be": 1923, "\u09a4\u09c1\u09b2\u09a8\u09be\u09a4": 1924, "\u09a4\u09c1\u09b2\u09bf": 1925, "\u09a4\u09c1\u09f0": 1926, "\u09a4\u09c3": 1927, "\u09a4\u09c3\u09a4": 1928, "\u09a4\u09c3\u09a4\u09c0\u09af\u09bc": 1929, "\u09a4\u09c3\u09a4\u09cd\u09ac": 1930, "\u09a4\u09c7": 1931, "\u09a4\u09c7\u0981\u0993": 1932, "\u09a4\u09c7\u0987": 1933, "\u09a4\u09c7\u0993": 1934, "\u09a4\u09c7\u0993\u0981": 1935, "\u09a4\u09c7\u0993\u0981\u0995": 1936, "\u09a4\u09c7\u0993\u0981\u09b2\u09cb": 1937, "\u09a4\u09c7\u0993\u0981\u09b2\u09cb\u0995": 1938, "\u09a4\u09c7\u0993\u0981\u09b2\u09cb\u0995\u0995": 1939, "\u09a4\u09c7\u0993\u0981\u09b2\u09cb\u0995\u09c7": 1940, "\u09a4\u09c7\u0993\u0981\u09b2\u09cb\u0995\u09f0": 1941, "\u09a4\u09c7\u0993\u0981\u09f0": 1942, "\u09a4\u09c7\u0996\u09c7": 1943, "\u09a4\u09c7\u0996\u09c7\u09a4": 1944, "\u09a4\u09c7\u0996\u09c7\u09a4\u0995": 1945, "\u09a4\u09c7\u0996\u09c7\u09a4\u09c7": 1946, "\u09a4\u09c7\u0996\u09c7\u09a4\u09f0": 1947, "\u09a4\u09c7\u099c": 1948, "\u09a4\u09c7\u099c\u09aa\u09c1\u09f0": 1949, "\u09a4\u09c7\u09a4\u09bf": 1950, "\u09a4\u09c7\u09a4\u09bf\u09af\u09bc\u09be": 1951, "\u09a4\u09c7\u09a4\u09bf\u09af\u09bc\u09be\u09f0": 1952, "\u09a4\u09c7\u09a4\u09bf\u09df\u09be": 1953, "\u09a4\u09c7\u09a4\u09cd\u09f0\u09bf\u09b6": 1954, "\u09a4\u09c7\u09a8\u09c7": 1955, "\u09a4\u09c7\u09a8\u09c7\u0995\u09c1\u09f1\u09be": 1956, "\u09a4\u09c7\u09a8\u09c7\u0995\u09c7": 1957, "\u09a4\u09c7\u09a8\u09c7\u0995\u09c8": 1958, "\u09a4\u09c7\u09a8\u09c7\u09b9\u09b2\u09c7": 1959, "\u09a4\u09c7\u09a8\u09cd\u09a4\u09c7": 1960, "\u09a4\u09c7\u09aa\u09a8\u09cd\u09a8": 1961, "\u09a4\u09c7\u09b2": 1962, "\u09a4\u09c7\u09f0": 1963, "\u09a4\u09c7\u09f0\u099f\u09be": 1964, "\u09a4\u09c8": 1965, "\u09a4\u09c8\u09af\u09bc\u09be\u09f0": 1966, "\u09a4\u09cb": 1967, "\u09a4\u09cb\u09ae\u09be\u0995": 1968, "\u09a4\u09cb\u09ae\u09be\u09b2\u09cb": 1969, "\u09a4\u09cb\u09ae\u09be\u09b2\u09cb\u0995\u09c7": 1970, "\u09a4\u09cb\u09ae\u09be\u09b2\u09cb\u0995\u09f0": 1971, "\u09a4\u09cb\u09ae\u09be\u09f0": 1972, "\u09a4\u09cb\u09b2\u09be": 1973, "\u09a4\u09cb\u09b2\u09c7\u0964": 1974, "\u09a4\u09cd": 1975, "\u09a4\u09cd\u09a4": 1976, "\u09a4\u09cd\u09a4\u09ae": 1977, "\u09a4\u09cd\u09a4\u09bf": 1978, "\u09a4\u09cd\u09a4\u09cd\u09ac": 1979, "\u09a4\u09cd\u09a4\u09f0": 1980, "\u09a4\u09cd\u09a8": 1981, "\u09a4\u09cd\u09ac": 1982, "\u09a4\u09cd\u09ac\u09be": 1983, "\u09a4\u09cd\u09ac\u09f0": 1984, "\u09a4\u09cd\u09ae\u0995": 1985, "\u09a4\u09cd\u09af": 1986, "\u09a4\u09cd\u09af\u09be": 1987, "\u09a4\u09cd\u09af\u09be\u0997": 1988, "\u09a4\u09cd\u09b0": 1989, "\u09a4\u09cd\u09f0": 1990, "\u09a4\u09cd\u09f0\u09be": 1991, "\u09a4\u09cd\u09f0\u09bf": 1992, "\u09a4\u09cd\u09f0\u09bf\u099b": 1993, "\u09a4\u09cd\u09f0\u09bf\u09b6": 1994, "\u09a4\u09f0": 1995, "\u09a4\u09f0\u09be": 1996, "\u09a4\u09f0\u09c1": 1997, "\u09a4\u09f0\u09c1\u09a3": 1998, "\u09a4\u09f0\u09c7": 1999, "\u09a5\u0995": 2000, "\u09a5\u0995\u09be": 2001, "\u09a5\u0995\u09be\u09f0": 2002, "\u09a5\u09ae": 2003, "\u09a5\u09ae\u09bf\u0995": 2004, "\u09a5\u09b2\u09c1\u09f1\u09be": 2005, "\u09a5\u09be": 2006, "\u09a5\u09be\u0995": 2007, "\u09a5\u09be\u0995\u09bf": 2008, "\u09a5\u09be\u0995\u09bf\u09ac": 2009, "\u09a5\u09be\u0995\u09bf\u09ac\u0964": 2010, "\u09a5\u09be\u0995\u09bf\u09ac\u09b2\u09c8": 2011, "\u09a5\u09be\u0995\u09bf\u09b2\u09c7": 2012, "\u09a5\u09be\u0995\u09c7": 2013, "\u09a5\u09be\u0995\u09c7\u0964": 2014, "\u09a5\u09be\u0995\u09cb": 2015, "\u09a5\u09be\u0995\u09cb\u0981\u09a4\u09c7": 2016, "\u09a5\u09be\u09a8": 2017, "\u09a5\u09be\u09f0": 2018, "\u09a5\u09bf": 2019, "\u09a5\u09bf\u09a4": 2020, "\u09a5\u09bf\u09af\u09bc\u09c7": 2021, "\u09a5\u09bf\u09af\u09bc\u09c7\u099f\u09be\u09f0": 2022, "\u09a5\u09c0": 2023, "\u09a5\u09c1": 2024, "\u09a5\u09c7": 2025, "\u09a5\u09c8": 2026, "\u09a5\u09cb\u09f1\u09be": 2027, "\u09a5\u09f0": 2028, "\u09a6\u0995\u09cd\u09b7": 2029, "\u09a6\u0995\u09cd\u09b7\u09a4\u09be": 2030, "\u09a6\u0995\u09cd\u09b7\u09bf": 2031, "\u09a6\u0995\u09cd\u09b7\u09bf\u09a3": 2032, "\u09a6\u0996\u09b2": 2033, "\u09a6\u09a3\u09cd\u09a1": 2034, "\u09a6\u09a4": 2035, "\u09a6\u09a4\u09cd\u09a4": 2036, "\u09a6\u09ae": 2037, "\u09a6\u09b2": 2038, "\u09a6\u09b2\u099f\u09cb": 2039, "\u09a6\u09b2\u099f\u09cb\u09f0": 2040, "\u09a6\u09b2\u09a4": 2041, "\u09a6\u09b2\u09c7": 2042, "\u09a6\u09b2\u09f0": 2043, "\u09a6\u09b6": 2044, "\u09a6\u09b6\u0995\u09a4": 2045, "\u09a6\u09b6\u0995\u09f0": 2046, "\u09a6\u09b6\u09ae": 2047, "\u09a6\u09b9": 2048, "\u09a6\u09b9\u099f\u09be": 2049, "\u09a6\u09be": 2050, "\u09a6\u09be\u0981": 2051, "\u09a6\u09be\u0987": 2052, "\u09a6\u09be\u0999\u09bf": 2053, "\u09a6\u09be\u09a8": 2054, "\u09a6\u09be\u09a8\u09f0": 2055, "\u09a6\u09be\u09ac\u09c0": 2056, "\u09a6\u09be\u09ae": 2057, "\u09a6\u09be\u09af\u09bc": 2058, "\u09a6\u09be\u09af\u09bc\u09bf\u09a4\u09cd\u09ac": 2059, "\u09a6\u09be\u09b2": 2060, "\u09a6\u09be\u09b8": 2061, "\u09a6\u09be\u09df": 2062, "\u09a6\u09be\u09f0": 2063, "\u09a6\u09be\u09f0\u09c0": 2064, "\u09a6\u09be\u09f0\u09cd": 2065, "\u09a6\u09be\u09f0\u09cd\u09b6": 2066, "\u09a6\u09be\u09f0\u09cd\u09b6\u09a8\u09bf\u0995": 2067, "\u09a6\u09bf": 2068, "\u09a6\u09bf\u0993": 2069, "\u09a6\u09bf\u0995": 2070, "\u09a6\u09bf\u099b\u09bf\u09b2": 2071, "\u09a6\u09bf\u099b\u09bf\u09b2\u0964": 2072, "\u09a6\u09bf\u099b\u09c7": 2073, "\u09a6\u09bf\u099b\u09c7\u0964": 2074, "\u09a6\u09bf\u09a4": 2075, "\u09a6\u09bf\u09a8": 2076, "\u09a6\u09bf\u09a8\u099f\u09cb": 2077, "\u09a6\u09bf\u09a8\u099f\u09cb\u09a4": 2078, "\u09a6\u09bf\u09a8\u09a4": 2079, "\u09a6\u09bf\u09a8\u09be": 2080, "\u09a6\u09bf\u09a8\u09be\u0996\u09a8": 2081, "\u09a6\u09bf\u09a8\u09c7": 2082, "\u09a6\u09bf\u09a8\u09f0": 2083, "\u09a6\u09bf\u09ac": 2084, "\u09a6\u09bf\u09ac\u09b2\u09c8": 2085, "\u09a6\u09bf\u09ac\u09be": 2086, "\u09a6\u09bf\u09ae": 2087, "\u09a6\u09bf\u09af\u09bc\u09be": 2088, "\u09a6\u09bf\u09af\u09bc\u09be\u09f0": 2089, "\u09a6\u09bf\u09af\u09bc\u09c7": 2090, "\u09a6\u09bf\u09af\u09bc\u09c7\u0964": 2091, "\u09a6\u09bf\u09b2": 2092, "\u09a6\u09bf\u09b2\u09c7": 2093, "\u09a6\u09bf\u09b2\u09c7\u0964": 2094, "\u09a6\u09bf\u09b2\u09cd": 2095, "\u09a6\u09bf\u09b2\u09cd\u09b2\u09c0": 2096, "\u09a6\u09bf\u09b2\u09cd\u09b2\u09c0\u09f0": 2097, "\u09a6\u09bf\u09b6": 2098, "\u09a6\u09bf\u09b6\u09a4": 2099, "\u09a6\u09bf\u09b6\u09c7": 2100, "\u09a6\u09bf\u09b6\u09f0": 2101, "\u09a6\u09bf\u09b7\u09cd\u099f": 2102, "\u09a6\u09bf\u09df\u09be": 2103, "\u09a6\u09bf\u09df\u09be\u09f0": 2104, "\u09a6\u09bf\u09df\u09c7": 2105, "\u09a6\u09bf\u09f1": 2106, "\u09a6\u09bf\u09f1\u09b8": 2107, "\u09a6\u09c0": 2108, "\u09a6\u09c0\u0998": 2109, "\u09a6\u09c0\u0998\u09b2": 2110, "\u09a6\u09c0\u0998\u09b2\u09c0\u09af\u09bc\u09be": 2111, "\u09a6\u09c0\u09f0\u09cd\u0998": 2112, "\u09a6\u09c1": 2113, "\u09a6\u09c1\u0987": 2114, "\u09a6\u09c1\u0996": 2115, "\u09a6\u09c1\u0996\u09a8": 2116, "\u09a6\u09c1\u099c\u09a8": 2117, "\u09a6\u09c1\u099f\u09be": 2118, "\u09a6\u09c1\u099f\u09bf": 2119, "\u09a6\u09c1\u09a6\u09bf\u09a8": 2120, "\u09a6\u09c1\u09ac\u099b\u09f0": 2121, "\u09a6\u09c1\u09af\u09bc\u09cb": 2122, "\u09a6\u09c1\u09af\u09bc\u09cb\u099f\u09be": 2123, "\u09a6\u09c1\u09b2": 2124, "\u09a6\u09c1\u09b6": 2125, "\u09a6\u09c1\u09b9\u09be\u099c\u09be\u09f0": 2126, "\u09a6\u09c1\u09b9\u09c7\u099c\u09be\u09f0": 2127, "\u09a6\u09c1\u09f0": 2128, "\u09a6\u09c1\u09f0\u09a4": 2129, "\u09a6\u09c1\u09f0\u09cd": 2130, "\u09a6\u09c1\u09f0\u09cd\u0997": 2131, "\u09a6\u09c1\u09f0\u09cd\u0997\u09be": 2132, "\u09a6\u09c1\u09f0\u09cd\u09ac\u09b2": 2133, "\u09a6\u09c1\u09f1\u09be\u09f0": 2134, "\u09a6\u09c2": 2135, "\u09a6\u09c2\u09f0": 2136, "\u09a6\u09c2\u09f0\u09a4": 2137, "\u09a6\u09c2\u09f0\u09a4\u09cd\u09ac": 2138, "\u09a6\u09c2\u09f0\u09cd": 2139, "\u09a6\u09c3": 2140, "\u09a6\u09c3\u09b6\u09cd\u09af": 2141, "\u09a6\u09c3\u09b7\u09cd\u099f\u09bf": 2142, "\u09a6\u09c7": 2143, "\u09a6\u09c7\u0987": 2144, "\u09a6\u09c7\u0989": 2145, "\u09a6\u09c7\u0989\u09a4\u09be": 2146, "\u09a6\u09c7\u0989\u09a4\u09be\u0995": 2147, "\u09a6\u09c7\u0989\u09a4\u09be\u0995\u09c7": 2148, "\u09a6\u09c7\u0989\u09a4\u09be\u0995\u09f0": 2149, "\u09a6\u09c7\u0989\u09f0\u09c0": 2150, "\u09a6\u09c7\u0993": 2151, "\u09a6\u09c7\u0996": 2152, "\u09a6\u09c7\u0996\u09be": 2153, "\u09a6\u09c7\u0996\u09bf": 2154, "\u09a6\u09c7\u0996\u09bf\u09ac\u09b2\u09c8": 2155, "\u09a6\u09c7\u0996\u09c1": 2156, "\u09a6\u09c7\u0996\u09c1\u0993\u09f1\u09be": 2157, "\u09a6\u09c7\u0996\u09c1\u09f1\u09be": 2158, "\u09a6\u09c7\u0996\u09c1\u09f1\u09be\u0987": 2159, "\u09a6\u09c7\u09b6": 2160, "\u09a6\u09c7\u09b6\u0996\u09a8\u09f0": 2161, "\u09a6\u09c7\u09b6\u09a4": 2162, "\u09a6\u09c7\u09b6\u09f0": 2163, "\u09a6\u09c7\u09b9": 2164, "\u09a6\u09c7\u09b9\u09a4": 2165, "\u09a6\u09c7\u09b9\u09f0": 2166, "\u09a6\u09c7\u09f0": 2167, "\u09a6\u09c7\u09f0\u09bf": 2168, "\u09a6\u09c7\u09f1": 2169, "\u09a6\u09c7\u09f1\u09a4\u09be": 2170, "\u09a6\u09c7\u09f1\u09a4\u09be\u09f0": 2171, "\u09a6\u09c7\u09f1\u09be\u09b2\u09af\u09bc": 2172, "\u09a6\u09c7\u09f1\u09c0": 2173, "\u09a6\u09c7\u09f1\u09c0\u0964": 2174, "\u09a6\u09c7\u09f1\u09c0\u0995": 2175, "\u09a6\u09c7\u09f1\u09c0\u09f0": 2176, "\u09a6\u09c7\u09f1\u09c7": 2177, "\u09a6\u09c7\u09f1\u09f0": 2178, "\u09a6\u09c8": 2179, "\u09a6\u09c8\u09a8\u09bf\u0995": 2180, "\u09a6\u09c8\u09f0\u09cd\u0998": 2181, "\u09a6\u09c8\u09f0\u09cd\u0998\u09cd\u09af": 2182, "\u09a6\u09cb": 2183, "\u09a6\u09cb\u0995\u09be\u09a8": 2184, "\u09a6\u09cb\u09b7": 2185, "\u09a6\u09cc": 2186, "\u09a6\u09cc\u09b2": 2187, "\u09a6\u09cd": 2188, "\u09a6\u09cd\u09a7": 2189, "\u09a6\u09cd\u09a7\u09be": 2190, "\u09a6\u09cd\u09a7\u09bf": 2191, "\u09a6\u09cd\u09ac": 2192, "\u09a6\u09cd\u09ac\u09be\u09f0": 2193, "\u09a6\u09cd\u09ac\u09be\u09f0\u09be": 2194, "\u09a6\u09cd\u09ac\u09bf": 2195, "\u09a6\u09cd\u09ac\u09bf\u09a4": 2196, "\u09a6\u09cd\u09ac\u09bf\u09a4\u09c0": 2197, "\u09a6\u09cd\u09ac\u09bf\u09a4\u09c0\u09af\u09bc": 2198, "\u09a6\u09cd\u09ac\u09c0": 2199, "\u09a6\u09cd\u09ac\u09c0\u09aa": 2200, "\u09a6\u09cd\u09af": 2201, "\u09a6\u09cd\u09b0": 2202, "\u09a6\u09cd\u09f0": 2203, "\u09a6\u09cd\u09f0\u09ac\u09cd\u09af": 2204, "\u09a6\u09cd\u09f0\u09be": 2205, "\u09a6\u09cd\u09f0\u09cb": 2206, "\u09a6\u09f0": 2207, "\u09a6\u09f0\u0982": 2208, "\u09a6\u09f0\u09be": 2209, "\u09a6\u09f0\u09bf": 2210, "\u09a6\u09f0\u09c7": 2211, "\u09a6\u09f0\u09c7\u0987": 2212, "\u09a6\u09f0\u09cd\u09b6": 2213, "\u09a6\u09f0\u09cd\u09b6\u0995": 2214, "\u09a6\u09f0\u09cd\u09b6\u0995\u09f0": 2215, "\u09a6\u09f0\u09cd\u09b6\u09a8": 2216, "\u09a6\u09f0\u09cd\u09b6\u09a8\u09f0": 2217, "\u09a7\u09a8": 2218, "\u09a7\u09a8\u09be": 2219, "\u09a7\u09a8\u09c0": 2220, "\u09a7\u09a8\u09f0": 2221, "\u09a7\u09be": 2222, "\u09a7\u09be\u09a4": 2223, "\u09a7\u09be\u09a8": 2224, "\u09a7\u09be\u09a8\u09f0": 2225, "\u09a7\u09be\u09f0": 2226, "\u09a7\u09be\u09f0\u09a3": 2227, "\u09a7\u09be\u09f0\u09a3\u09be": 2228, "\u09a7\u09be\u09f0\u09be": 2229, "\u09a7\u09be\u09f0\u09be\u09ac\u09be\u09b9\u09bf\u0995": 2230, "\u09a7\u09be\u09f0\u09be\u09f0": 2231, "\u09a7\u09bf": 2232, "\u09a7\u09bf\u0995": 2233, "\u09a7\u09bf\u0995\u09be\u09f0": 2234, "\u09a7\u09bf\u09a4\u09cd\u09ac": 2235, "\u09a7\u09c0": 2236, "\u09a7\u09c0\u09a8": 2237, "\u09a7\u09c0\u09a8\u09a4": 2238, "\u09a7\u09c0\u09a8\u09a4\u09be\u09f0": 2239, "\u09a7\u09c1": 2240, "\u09a7\u09c1\u09a8\u09c0\u09df\u09be": 2241, "\u09a7\u09c2": 2242, "\u09a7\u09c7": 2243, "\u09a7\u09c7\u09ae\u09be\u099c\u09bf": 2244, "\u09a7\u09cd\u09ac": 2245, "\u09a7\u09cd\u09ac\u0982\u09b8": 2246, "\u09a7\u09cd\u09af": 2247, "\u09a7\u09cd\u09af\u09be": 2248, "\u09a7\u09cd\u09f0\u09c1": 2249, "\u09a7\u09f0": 2250, "\u09a7\u09f0\u0995": 2251, "\u09a7\u09f0\u09a3\u09c7": 2252, "\u09a7\u09f0\u09a3\u09f0": 2253, "\u09a7\u09f0\u09be": 2254, "\u09a7\u09f0\u09bf": 2255, "\u09a7\u09f0\u09bf\u09ac": 2256, "\u09a7\u09f0\u09bf\u09b2\u09c7\u0964": 2257, "\u09a7\u09f0\u09c7\u0964": 2258, "\u09a7\u09f0\u09cd": 2259, "\u09a7\u09f0\u09cd\u09ae": 2260, "\u09a7\u09f0\u09cd\u09ae\u09a4": 2261, "\u09a7\u09f0\u09cd\u09ae\u09be": 2262, "\u09a7\u09f0\u09cd\u09ae\u09be\u09f1\u09b2\u09ae\u09cd\u09ac\u09c0": 2263, "\u09a7\u09f0\u09cd\u09ae\u09c0": 2264, "\u09a7\u09f0\u09cd\u09ae\u09c0\u09af\u09bc": 2265, "\u09a7\u09f0\u09cd\u09ae\u09f0": 2266, "\u09a8\u0964": 2267, "\u09a8\u0982": 2268, "\u09a8\u0995": 2269, "\u09a8\u0995\u09f0\u09be": 2270, "\u09a8\u0995\u09f0\u09c7": 2271, "\u09a8\u0995\u09f0\u09c7\u0964": 2272, "\u09a8\u0997": 2273, "\u09a8\u0997\u09be": 2274, "\u09a8\u0997\u09be\u0981\u0993": 2275, "\u09a8\u0997\u09f0": 2276, "\u09a8\u0997\u09f0\u09f0": 2277, "\u09a8\u09a4": 2278, "\u09a8\u09a4\u09c1": 2279, "\u09a8\u09a4\u09c1\u09a8": 2280, "\u09a8\u09a5\u0995\u09be": 2281, "\u09a8\u09a6": 2282, "\u09a8\u09a6\u09c0": 2283, "\u09a8\u09a6\u09c0\u09f0": 2284, "\u09a8\u09a8\u09cd": 2285, "\u09a8\u09ac": 2286, "\u09a8\u09ac\u09cd\u09ac\u09c8": 2287, "\u09a8\u09ae\u09cd\u09ac\u09f0": 2288, "\u09a8\u09b2": 2289, "\u09a8\u09b2\u09ac\u09be\u09f0\u09c0": 2290, "\u09a8\u09b7\u09cd\u099f": 2291, "\u09a8\u09b9\u09ac": 2292, "\u09a8\u09b9\u09af\u09bc": 2293, "\u09a8\u09b9\u09af\u09bc\u0964": 2294, "\u09a8\u09b9\u09b2": 2295, "\u09a8\u09b9\u09b2\u09c7": 2296, "\u09a8\u09b9\u09df": 2297, "\u09a8\u09b9\u09df\u0964": 2298, "\u09a8\u09be": 2299, "\u09a8\u09be\u0964": 2300, "\u09a8\u09be\u0987": 2301, "\u09a8\u09be\u0987\u0964": 2302, "\u09a8\u09be\u0987\u09a8": 2303, "\u09a8\u09be\u0987\u09ac\u09be": 2304, "\u09a8\u09be\u0993": 2305, "\u09a8\u09be\u0995": 2306, "\u09a8\u09be\u0997": 2307, "\u09a8\u09be\u0997\u09f0\u09bf\u0995": 2308, "\u09a8\u09be\u099a": 2309, "\u09a8\u09be\u099a\u09bf": 2310, "\u09a8\u09be\u099b\u09bf\u09b2": 2311, "\u09a8\u09be\u099b\u09bf\u09b2\u0964": 2312, "\u09a8\u09be\u099b\u09bf\u09b2\u09c7": 2313, "\u09a8\u09be\u099c\u09be\u09a8\u09cb": 2314, "\u09a8\u09be\u099f": 2315, "\u09a8\u09be\u099f\u0995": 2316, "\u09a8\u09be\u099f\u0995\u09f0": 2317, "\u09a8\u09be\u099f\u09cd\u09af": 2318, "\u09a8\u09be\u09a4": 2319, "\u09a8\u09be\u09a5": 2320, "\u09a8\u09be\u09a5\u09be\u0995\u09c7": 2321, "\u09a8\u09be\u09a8": 2322, "\u09a8\u09be\u09a8\u09be": 2323, "\u09a8\u09be\u09ae": 2324, "\u09a8\u09be\u09ae\u0995\u09f0\u09a3": 2325, "\u09a8\u09be\u09ae\u0998\u09f0": 2326, "\u09a8\u09be\u09ae\u099f\u09cb": 2327, "\u09a8\u09be\u09ae\u09a4": 2328, "\u09a8\u09be\u09ae\u09a8\u09bf": 2329, "\u09a8\u09be\u09ae\u09ad\u09f0\u09cd\u09a4\u09bf": 2330, "\u09a8\u09be\u09ae\u09be": 2331, "\u09a8\u09be\u09ae\u09bf": 2332, "\u09a8\u09be\u09ae\u09c2": 2333, "\u09a8\u09be\u09ae\u09c7": 2334, "\u09a8\u09be\u09ae\u09c7\u09f0\u09c7": 2335, "\u09a8\u09be\u09ae\u09cd\u09ac": 2336, "\u09a8\u09be\u09ae\u09cd\u09ac\u09be\u09f0": 2337, "\u09a8\u09be\u09ae\u09f0": 2338, "\u09a8\u09be\u09af\u09bc": 2339, "\u09a8\u09be\u09af\u09bc\u0995": 2340, "\u09a8\u09be\u09af\u09be\u09af\u09bc\u0964": 2341, "\u09a8\u09be\u09b2\u09be\u0997\u09c7": 2342, "\u09a8\u09be\u09f0": 2343, "\u09a8\u09be\u09f0\u09be\u09af\u09bc": 2344, "\u09a8\u09be\u09f0\u09be\u09af\u09bc\u09a3": 2345, "\u09a8\u09be\u09f0\u09c0": 2346, "\u09a8\u09be\u09f0\u09c0\u09f0": 2347, "\u09a8\u09be\u09f0\u09cd": 2348, "\u09a8\u09bf": 2349, "\u09a8\u09bf\u0982": 2350, "\u09a8\u09bf\u0989": 2351, "\u09a8\u09bf\u0989\u099c": 2352, "\u09a8\u09bf\u0995": 2353, "\u09a8\u09bf\u0995\u09bf": 2354, "\u09a8\u09bf\u0997": 2355, "\u09a8\u09bf\u099a\u09bf\u09a8\u09be": 2356, "\u09a8\u09bf\u099c": 2357, "\u09a8\u09bf\u099c\u0995\u09c7": 2358, "\u09a8\u09bf\u099c\u09be": 2359, "\u09a8\u09bf\u099c\u09c7": 2360, "\u09a8\u09bf\u099c\u09c7\u0987": 2361, "\u09a8\u09bf\u099c\u09f0": 2362, "\u09a8\u09bf\u09a4": 2363, "\u09a8\u09bf\u09ae": 2364, "\u09a8\u09bf\u09ae\u09cd": 2365, "\u09a8\u09bf\u09ae\u09cd\u09a8": 2366, "\u09a8\u09bf\u09af\u09bc": 2367, "\u09a8\u09bf\u09af\u09bc\u09a8\u09cd\u09a4\u09cd\u09f0": 2368, "\u09a8\u09bf\u09af\u09bc\u09a8\u09cd\u09a4\u09cd\u09f0\u09a3": 2369, "\u09a8\u09bf\u09af\u09bc\u09ae": 2370, "\u09a8\u09bf\u09af\u09bc\u09be": 2371, "\u09a8\u09bf\u09af\u09bc\u09cb\u0997": 2372, "\u09a8\u09bf\u09af\u09c1": 2373, "\u09a8\u09bf\u09af\u09c1\u0995\u09cd\u09a4": 2374, "\u09a8\u09bf\u09af\u09c1\u0995\u09cd\u09a4\u09bf": 2375, "\u09a8\u09bf\u09af\u09c1\u09a4": 2376, "\u09a8\u09bf\u09b6\u09be": 2377, "\u09a8\u09bf\u09b6\u09cd\u099a": 2378, "\u09a8\u09bf\u09b6\u09cd\u099a\u09bf\u09a4": 2379, "\u09a8\u09bf\u09b6\u09cd\u099a\u09df": 2380, "\u09a8\u09bf\u09b7\u09bf": 2381, "\u09a8\u09bf\u09b7\u09bf\u09a6\u09cd\u09a7": 2382, "\u09a8\u09bf\u09b7\u09cd\u09a0": 2383, "\u09a8\u09bf\u09b9\u09a4": 2384, "\u09a8\u09bf\u09df": 2385, "\u09a8\u09bf\u09f0": 2386, "\u09a8\u09bf\u09f0\u09be": 2387, "\u09a8\u09bf\u09f0\u09cd": 2388, "\u09a8\u09bf\u09f0\u09cd\u09a3": 2389, "\u09a8\u09bf\u09f0\u09cd\u09a6\u09bf\u09b7\u09cd\u099f": 2390, "\u09a8\u09bf\u09f0\u09cd\u09a6\u09c7\u09b6": 2391, "\u09a8\u09bf\u09f0\u09cd\u09ac\u09be": 2392, "\u09a8\u09bf\u09f0\u09cd\u09ac\u09be\u099a\u09a8": 2393, "\u09a8\u09bf\u09f0\u09cd\u09ac\u09be\u099a\u09a8\u09a4": 2394, "\u09a8\u09bf\u09f0\u09cd\u09ac\u09be\u099a\u09bf\u09a4": 2395, "\u09a8\u09bf\u09f0\u09cd\u09ac\u09be\u09b9": 2396, "\u09a8\u09bf\u09f0\u09cd\u09ad\u09f0": 2397, "\u09a8\u09bf\u09f0\u09cd\u09ae\u09be": 2398, "\u09a8\u09bf\u09f0\u09cd\u09ae\u09be\u09a3": 2399, "\u09a8\u09bf\u09f0\u09cd\u09ae\u09be\u09a3\u09f0": 2400, "\u09a8\u09bf\u09f0\u09cd\u09ae\u09be\u09a8": 2401, "\u09a8\u09bf\u09f0\u09cd\u09ae\u09bf\u09a4": 2402, "\u09a8\u09c0": 2403, "\u09a8\u09c0\u09a4": 2404, "\u09a8\u09c0\u09a4\u09bf": 2405, "\u09a8\u09c0\u09a4\u09bf\u09f0": 2406, "\u09a8\u09c0\u09af\u09bc": 2407, "\u09a8\u09c0\u09af\u09bc\u09be": 2408, "\u09a8\u09c0\u09af\u09bc\u09c7": 2409, "\u09a8\u09c0\u09b2\u09be": 2410, "\u09a8\u09c0\u09df\u09be": 2411, "\u09a8\u09c0\u09f0": 2412, "\u09a8\u09c1": 2413, "\u09a8\u09c3": 2414, "\u09a8\u09c3\u09a4\u09cd\u09af": 2415, "\u09a8\u09c3\u09a4\u09cd\u09af\u09f0": 2416, "\u09a8\u09c7": 2417, "\u09a8\u09c7\u0995": 2418, "\u09a8\u09c7\u0995\u09bf": 2419, "\u09a8\u09c7\u099f": 2420, "\u09a8\u09c7\u099f\u09f1\u09f0\u09cd": 2421, "\u09a8\u09c7\u099f\u09f1\u09f0\u09cd\u0995": 2422, "\u09a8\u09c7\u09a4\u09be": 2423, "\u09a8\u09c7\u09a4\u09c3\u09a4\u09cd\u09ac": 2424, "\u09a8\u09c7\u09a4\u09c3\u09a4\u09cd\u09ac\u09a4": 2425, "\u09a8\u09c7\u09aa\u09be\u09b2": 2426, "\u09a8\u09c7\u09aa\u09be\u09b2\u09c0": 2427, "\u09a8\u09c7\u09aa\u09be\u09b2\u09f0": 2428, "\u09a8\u09c7\u09b2": 2429, "\u09a8\u09c7\u09b9": 2430, "\u09a8\u09c7\u09b9\u09f0\u09c1": 2431, "\u09a8\u09c8": 2432, "\u09a8\u09c8\u099a": 2433, "\u09a8\u09c8\u099b": 2434, "\u09a8\u09c8\u09a4\u09bf\u0995": 2435, "\u09a8\u09c8\u09b6": 2436, "\u09a8\u09cb": 2437, "\u09a8\u09cb\u09b9\u09cb\u09f1\u09be": 2438, "\u09a8\u09cb\u09f1": 2439, "\u09a8\u09cb\u09f1\u09be\u09f0": 2440, "\u09a8\u09cb\u09f1\u09be\u09f0\u09be": 2441, "\u09a8\u09cb\u09f1\u09be\u09f0\u09bf": 2442, "\u09a8\u09cb\u09f1\u09be\u09f0\u09c7": 2443, "\u09a8\u09cb\u09f1\u09be\u09f0\u09c7\u0964": 2444, "\u09a8\u09cc": 2445, "\u09a8\u09cd": 2446, "\u09a8\u09cd\u099f": 2447, "\u09a8\u09cd\u099f\u09bf": 2448, "\u09a8\u09cd\u09a4": 2449, "\u09a8\u09cd\u09a4\u09bf": 2450, "\u09a8\u09cd\u09a4\u09c1": 2451, "\u09a8\u09cd\u09a4\u09c7": 2452, "\u09a8\u09cd\u09a4\u09cd\u09f0": 2453, "\u09a8\u09cd\u09a4\u09f0": 2454, "\u09a8\u09cd\u09a5": 2455, "\u09a8\u09cd\u09a6": 2456, "\u09a8\u09cd\u09a6\u09be": 2457, "\u09a8\u09cd\u09a6\u09c0": 2458, "\u09a8\u09cd\u09a6\u09c1": 2459, "\u09a8\u09cd\u09a6\u09cd\u09f0": 2460, "\u09a8\u09cd\u09a6\u09cd\u09f0\u09a8\u09be\u09a5": 2461, "\u09a8\u09cd\u09a6\u09f0": 2462, "\u09a8\u09cd\u09a6\u09f0\u09cd": 2463, "\u09a8\u09cd\u09a7": 2464, "\u09a8\u09cd\u09a7\u09f0": 2465, "\u09a8\u09cd\u09a8": 2466, "\u09a8\u09cd\u09ae": 2467, "\u09a8\u09cd\u09af": 2468, "\u09a8\u09cd\u09af\u09be": 2469, "\u09a8\u09cd\u09af\u09be\u09af\u09bc": 2470, "\u09a8\u09cd\u09b8": 2471, "\u09a8\u09f0": 2472, "\u09a8\u09f1": 2473, "\u09a8\u09f1\u09c7": 2474, "\u09a8\u09f1\u09c7\u09ae\u09cd\u09ac\u09f0": 2475, "\u09aa\u0981": 2476, "\u09aa\u0981\u099a\u09bf": 2477, "\u09aa\u0981\u099a\u09bf\u099b": 2478, "\u09aa\u0987": 2479, "\u09aa\u0987\u099a\u09be": 2480, "\u09aa\u0995": 2481, "\u09aa\u0995\u09be": 2482, "\u09aa\u0995\u09cd\u09b7": 2483, "\u09aa\u0995\u09cd\u09b7\u09c0": 2484, "\u09aa\u0995\u09cd\u09b7\u09f0": 2485, "\u09aa\u099e\u09cd": 2486, "\u09aa\u099e\u09cd\u099a": 2487, "\u09aa\u099e\u09cd\u099a\u09ae": 2488, "\u09aa\u099e\u09cd\u099a\u09be": 2489, "\u09aa\u099e\u09cd\u099a\u09be\u099b": 2490, "\u09aa\u099e\u09cd\u099a\u09be\u09b6": 2491, "\u09aa\u099e\u09cd\u099c\u09be": 2492, "\u09aa\u099f": 2493, "\u09aa\u09a0\u09bf": 2494, "\u09aa\u09a2\u09bc": 2495, "\u09aa\u09a2\u09bc\u09be": 2496, "\u09aa\u09a2\u09bc\u09bf": 2497, "\u09aa\u09a2\u09bc\u09bf\u09ac\u09b2\u09c8": 2498, "\u09aa\u09a3": 2499, "\u09aa\u09a3\u09cd\u09a1": 2500, "\u09aa\u09a3\u09cd\u09a1\u09bf\u09a4": 2501, "\u09aa\u09a4": 2502, "\u09aa\u09a4\u09be": 2503, "\u09aa\u09a4\u09be\u0995\u09be": 2504, "\u09aa\u09a4\u09bf": 2505, "\u09aa\u09a4\u09bf\u09f0": 2506, "\u09aa\u09a4\u09cd": 2507, "\u09aa\u09a4\u09cd\u09a4\u09bf": 2508, "\u09aa\u09a4\u09cd\u09a4\u09bf\u09f0": 2509, "\u09aa\u09a4\u09cd\u09a8\u09c0": 2510, "\u09aa\u09a4\u09cd\u09f0": 2511, "\u09aa\u09a5": 2512, "\u09aa\u09a5\u09a4": 2513, "\u09aa\u09a5\u09be\u09f0": 2514, "\u09aa\u09a5\u09be\u09f0\u09a4": 2515, "\u09aa\u09a5\u09f0": 2516, "\u09aa\u09a6": 2517, "\u09aa\u09a6\u0995": 2518, "\u09aa\u09a6\u09a4": 2519, "\u09aa\u09a6\u09be\u09f0\u09cd\u09a5": 2520, "\u09aa\u09a6\u09c0": 2521, "\u09aa\u09a6\u09cd": 2522, "\u09aa\u09a6\u09cd\u09a7": 2523, "\u09aa\u09a6\u09cd\u09a7\u09a4\u09bf": 2524, "\u09aa\u09a6\u09cd\u09ae": 2525, "\u09aa\u09a6\u09f0": 2526, "\u09aa\u09a8": 2527, "\u09aa\u09a8\u09be": 2528, "\u09aa\u09a8\u09bf": 2529, "\u09aa\u09a8\u09cd\u09a5": 2530, "\u09aa\u09a8\u09cd\u09a5\u09c0": 2531, "\u09aa\u09a8\u09cd\u09a8": 2532, "\u09aa\u09a8\u09f0": 2533, "\u09aa\u09ac\u09bf\u09a4\u09cd\u09f0": 2534, "\u09aa\u09b0\u09cd\u09af": 2535, "\u09aa\u09b2": 2536, "\u09aa\u09b2\u09be": 2537, "\u09aa\u09b2\u09be\u0987": 2538, "\u09aa\u09b2\u09bf": 2539, "\u09aa\u09b6\u09c1": 2540, "\u09aa\u09b6\u09cd\u099a\u09bf": 2541, "\u09aa\u09b6\u09cd\u099a\u09bf\u09ae": 2542, "\u09aa\u09b6\u09cd\u099a\u09bf\u09ae\u09ac": 2543, "\u09aa\u09be": 2544, "\u09aa\u09be\u0981\u099a": 2545, "\u09aa\u09be\u0981\u099a\u0996\u09a8": 2546, "\u09aa\u09be\u0981\u099a\u099a\u09a8\u09a4": 2547, "\u09aa\u09be\u0981\u099a\u099a\u09a8\u09f0": 2548, "\u09aa\u09be\u0981\u099a\u099f\u09be": 2549, "\u09aa\u09be\u0981\u099a\u09b6": 2550, "\u09aa\u09be\u0987": 2551, "\u09aa\u09be\u0987\u099b\u09be": 2552, "\u09aa\u09be\u0987\u099b\u09bf\u09b2": 2553, "\u09aa\u09be\u0987\u099b\u09bf\u09b2\u0964": 2554, "\u09aa\u09be\u0987\u099b\u09c7": 2555, "\u09aa\u09be\u0987\u099b\u09c7\u0964": 2556, "\u09aa\u09be\u0987\u099b\u09cb": 2557, "\u09aa\u09be\u0993": 2558, "\u09aa\u09be\u0993\u0981": 2559, "\u09aa\u09be\u0995": 2560, "\u09aa\u09be\u0995\u09bf": 2561, "\u09aa\u09be\u0995\u09bf\u09b8\u09cd\u09a4": 2562, "\u09aa\u09be\u0995\u09bf\u09b8\u09cd\u09a4\u09be\u09a8\u09f0": 2563, "\u09aa\u09be\u099a": 2564, "\u09aa\u09be\u099a\u09a4": 2565, "\u09aa\u09be\u099b": 2566, "\u09aa\u09be\u099b\u09a4": 2567, "\u09aa\u09be\u099b\u09a4\u09c7": 2568, "\u09aa\u09be\u099b\u09a4\u09c7\u0987": 2569, "\u09aa\u09be\u099b\u09b2\u09c8": 2570, "\u09aa\u09be\u099b\u09f0": 2571, "\u09aa\u09be\u099e\u09cd\u099c\u09be": 2572, "\u09aa\u09be\u099f": 2573, "\u09aa\u09be\u09a0": 2574, "\u09aa\u09be\u09a0\u09cd\u09af": 2575, "\u09aa\u09be\u09a3": 2576, "\u09aa\u09be\u09a3\u09cd\u09a1": 2577, "\u09aa\u09be\u09a4": 2578, "\u09aa\u09be\u09a4\u09a4": 2579, "\u09aa\u09be\u09a4\u09a8\u09bf": 2580, "\u09aa\u09be\u09a4\u09b2": 2581, "\u09aa\u09be\u09a4\u09bf": 2582, "\u09aa\u09be\u09a4\u09c7": 2583, "\u09aa\u09be\u09a4\u09c7\u0964": 2584, "\u09aa\u09be\u09a4\u09cd\u09f0": 2585, "\u09aa\u09be\u09a4\u09f0": 2586, "\u09aa\u09be\u09a6": 2587, "\u09aa\u09be\u09a8": 2588, "\u09aa\u09be\u09a8\u09c0": 2589, "\u09aa\u09be\u09a8\u09c0\u09a4": 2590, "\u09aa\u09be\u09a8\u09c0\u09af\u09bc": 2591, "\u09aa\u09be\u09a8\u09c0\u09f0": 2592, "\u09aa\u09be\u09ac": 2593, "\u09aa\u09be\u09ac\u09b2\u09c8": 2594, "\u09aa\u09be\u09ac\u09be": 2595, "\u09aa\u09be\u09ae": 2596, "\u09aa\u09be\u09af\u09bc": 2597, "\u09aa\u09be\u09af\u09bc\u0964": 2598, "\u09aa\u09be\u09b2": 2599, "\u09aa\u09be\u09b2\u09a8": 2600, "\u09aa\u09be\u09b2\u09bf": 2601, "\u09aa\u09be\u09b2\u09c7": 2602, "\u09aa\u09be\u09b2\u09cb": 2603, "\u09aa\u09be\u09b6\u09a4": 2604, "\u09aa\u09be\u09b6\u09c7": 2605, "\u09aa\u09be\u09b9": 2606, "\u09aa\u09be\u09b9\u09be\u09f0": 2607, "\u09aa\u09be\u09b9\u09be\u09f0\u09f0": 2608, "\u09aa\u09be\u09b9\u09f0\u09bf": 2609, "\u09aa\u09be\u09df": 2610, "\u09aa\u09be\u09f0": 2611, "\u09aa\u09be\u09f0\u09a4": 2612, "\u09aa\u09be\u09f0\u09be": 2613, "\u09aa\u09be\u09f0\u09bf": 2614, "\u09aa\u09be\u09f0\u09bf\u0964": 2615, "\u09aa\u09be\u09f0\u09bf\u09ac": 2616, "\u09aa\u09be\u09f0\u09bf\u09ae": 2617, "\u09aa\u09be\u09f0\u09c7": 2618, "\u09aa\u09be\u09f0\u09c7\u0964": 2619, "\u09aa\u09be\u09f0\u09cb": 2620, "\u09aa\u09be\u09f0\u09cd": 2621, "\u09aa\u09be\u09f0\u09cd\u099a": 2622, "\u09aa\u09be\u09f0\u09cd\u099f\u09bf": 2623, "\u09aa\u09be\u09f0\u09cd\u09a5\u0995": 2624, "\u09aa\u09be\u09f0\u09cd\u09a5\u0995\u09cd\u09af": 2625, "\u09aa\u09be\u09f0\u09cd\u09ac": 2626, "\u09aa\u09be\u09f0\u09f0": 2627, "\u09aa\u09bf": 2628, "\u09aa\u09bf\u0982": 2629, "\u09aa\u09bf\u0995": 2630, "\u09aa\u09bf\u099a\u09a4": 2631, "\u09aa\u09bf\u099b": 2632, "\u09aa\u09bf\u099b\u09a4": 2633, "\u09aa\u09bf\u099b\u09a4\u09c7": 2634, "\u09aa\u09bf\u099b\u09a4\u09c7\u0987": 2635, "\u09aa\u09bf\u099b\u09a4\u09cb": 2636, "\u09aa\u09bf\u099b\u09b2\u09c8": 2637, "\u09aa\u09bf\u099b\u09c7": 2638, "\u09aa\u09bf\u099b\u09f0": 2639, "\u09aa\u09bf\u09a0\u09be": 2640, "\u09aa\u09bf\u09a4": 2641, "\u09aa\u09bf\u09a4\u09be": 2642, "\u09aa\u09bf\u09a4\u09c3": 2643, "\u09aa\u09bf\u09a4\u09c3\u09f0": 2644, "\u09aa\u09bf\u09a8\u09c7": 2645, "\u09aa\u09bf\u09a8\u09cd\u09a7": 2646, "\u09aa\u09bf\u09a8\u09cd\u09a7\u09be": 2647, "\u09aa\u09bf\u09a8\u09cd\u09a7\u09bf": 2648, "\u09aa\u09bf\u09af\u09bc": 2649, "\u09aa\u09c0": 2650, "\u09aa\u09c0\u09a0": 2651, "\u09aa\u09c1": 2652, "\u09aa\u09c1\u0981": 2653, "\u09aa\u09c1\u0996\u09c1": 2654, "\u09aa\u09c1\u0996\u09c1\u09f0\u09c0": 2655, "\u09aa\u09c1\u09a4": 2656, "\u09aa\u09c1\u09a4\u09cd\u09f0": 2657, "\u09aa\u09c1\u09a5\u09bf": 2658, "\u09aa\u09c1\u09a8": 2659, "\u09aa\u09c1\u09a8\u09f0": 2660, "\u09aa\u09c1\u09b2": 2661, "\u09aa\u09c1\u09b2\u09bf": 2662, "\u09aa\u09c1\u09b2\u09bf\u099a": 2663, "\u09aa\u09c1\u09b7\u09cd": 2664, "\u09aa\u09c1\u09f0": 2665, "\u09aa\u09c1\u09f0\u09a3\u09bf": 2666, "\u09aa\u09c1\u09f0\u09a4": 2667, "\u09aa\u09c1\u09f0\u09b8\u09cd\u0995\u09be\u09f0": 2668, "\u09aa\u09c1\u09f0\u09be": 2669, "\u09aa\u09c1\u09f0\u09be\u09a3": 2670, "\u09aa\u09c1\u09f0\u09c1": 2671, "\u09aa\u09c1\u09f0\u09c1\u09b7": 2672, "\u09aa\u09c1\u09f0\u09c1\u09b7\u09f0": 2673, "\u09aa\u09c1\u09f0\u09f0": 2674, "\u09aa\u09c1\u09f1\u09be": 2675, "\u09aa\u09c2": 2676, "\u09aa\u09c2\u099c\u09be": 2677, "\u09aa\u09c2\u099c\u09be\u09a4": 2678, "\u09aa\u09c2\u099c\u09be\u09f0": 2679, "\u09aa\u09c2\u09ac": 2680, "\u09aa\u09c2\u09f0": 2681, "\u09aa\u09c2\u09f0\u09cd": 2682, "\u09aa\u09c2\u09f0\u09cd\u09a3": 2683, "\u09aa\u09c2\u09f0\u09cd\u09a3\u09bf": 2684, "\u09aa\u09c2\u09f0\u09cd\u09a3\u09f0\u09c2\u09aa\u09c7": 2685, "\u09aa\u09c2\u09f0\u09cd\u09ac": 2686, "\u09aa\u09c2\u09f0\u09cd\u09ac\u09a4\u09c7": 2687, "\u09aa\u09c2\u09f0\u09cd\u09ac\u09be": 2688, "\u09aa\u09c2\u09f0\u09cd\u09ac\u09be\u099e\u09cd\u099a\u09b2\u09f0": 2689, "\u09aa\u09c2\u09f0\u09cd\u09ac\u09c7": 2690, "\u09aa\u09c2\u09f0\u09cd\u09ac\u09f0": 2691, "\u09aa\u09c2\u09f1": 2692, "\u09aa\u09c3": 2693, "\u09aa\u09c3\u09a5": 2694, "\u09aa\u09c3\u09a5\u0995": 2695, "\u09aa\u09c3\u09a5\u09bf": 2696, "\u09aa\u09c3\u09a5\u09bf\u09f1": 2697, "\u09aa\u09c3\u09a5\u09bf\u09f1\u09c0": 2698, "\u09aa\u09c3\u09a5\u09bf\u09f1\u09c0\u09a4": 2699, "\u09aa\u09c3\u09a5\u09bf\u09f1\u09c0\u09f0": 2700, "\u09aa\u09c3\u09b7\u09cd\u09a0": 2701, "\u09aa\u09c3\u09b7\u09cd\u09a0\u09f0": 2702, "\u09aa\u09c7": 2703, "\u09aa\u09c7\u0995\u09c7": 2704, "\u09aa\u09c7\u0995\u09cd\u09b7": 2705, "\u09aa\u09c7\u09a8": 2706, "\u09aa\u09c7\u09b2\u09be": 2707, "\u09aa\u09c7\u09b2\u09be\u0987": 2708, "\u09aa\u09c7\u09f0\u09bf": 2709, "\u09aa\u09cb": 2710, "\u09aa\u09cb\u0995": 2711, "\u09aa\u09cb\u099b\u09be": 2712, "\u09aa\u09cb\u099b\u09be\u0995": 2713, "\u09aa\u09cb\u09a8": 2714, "\u09aa\u09cb\u09a8\u09cd\u09a7\u09f0": 2715, "\u09aa\u09cb\u09b9\u09f0": 2716, "\u09aa\u09cb\u09b9\u09f0\u09f0": 2717, "\u09aa\u09cb\u09f0\u09be": 2718, "\u09aa\u09cb\u09f1": 2719, "\u09aa\u09cb\u09f1\u09be": 2720, "\u09aa\u09cb\u09f1\u09be\u09b2\u09bf": 2721, "\u09aa\u09cb\u09f1\u09be\u09f0": 2722, "\u09aa\u09cc": 2723, "\u09aa\u09cd": 2724, "\u09aa\u09cd\u09a4": 2725, "\u09aa\u09cd\u09a4\u09be\u09f0": 2726, "\u09aa\u09cd\u09a4\u09bf": 2727, "\u09aa\u09cd\u09b0": 2728, "\u09aa\u09cd\u09b0\u09a5\u09ae": 2729, "\u09aa\u09cd\u09b0\u09be": 2730, "\u09aa\u09cd\u09b2": 2731, "\u09aa\u09cd\u09b2\u09be": 2732, "\u09aa\u09cd\u09b2\u09c7": 2733, "\u09aa\u09cd\u09b2\u09c7\u09a8": 2734, "\u09aa\u09cd\u09f0": 2735, "\u09aa\u09cd\u09f0\u0995\u09b2\u09cd\u09aa": 2736, "\u09aa\u09cd\u09f0\u0995\u09be\u09b6": 2737, "\u09aa\u09cd\u09f0\u0995\u09be\u09b6\u09bf\u09a4": 2738, "\u09aa\u09cd\u09f0\u0995\u09be\u09f0": 2739, "\u09aa\u09cd\u09f0\u0995\u09be\u09f0\u09f0": 2740, "\u09aa\u09cd\u09f0\u0995\u09c3\u09a4": 2741, "\u09aa\u09cd\u09f0\u0995\u09c3\u09a4\u09a4\u09c7": 2742, "\u09aa\u09cd\u09f0\u0995\u09c3\u09a4\u09bf": 2743, "\u09aa\u09cd\u09f0\u0995\u09c3\u09a4\u09bf\u09f0": 2744, "\u09aa\u09cd\u09f0\u0995\u09cd\u09f0\u09bf\u09af\u09bc\u09be": 2745, "\u09aa\u09cd\u09f0\u0996\u09cd\u09af\u09be\u09a4": 2746, "\u09aa\u09cd\u09f0\u099a\u09b2": 2747, "\u09aa\u09cd\u09f0\u099a\u09b2\u09a8": 2748, "\u09aa\u09cd\u09f0\u099a\u09b2\u09bf\u09a4": 2749, "\u09aa\u09cd\u09f0\u099a\u09be\u09f0": 2750, "\u09aa\u09cd\u09f0\u099a\u09c1\u09f0": 2751, "\u09aa\u09cd\u09f0\u099a\u09c7": 2752, "\u09aa\u09cd\u09f0\u099c\u09a8": 2753, "\u09aa\u09cd\u09f0\u099c\u09be\u09a4\u09bf": 2754, "\u09aa\u09cd\u09f0\u099c\u09be\u09a4\u09bf\u09f0": 2755, "\u09aa\u09cd\u09f0\u09a3": 2756, "\u09aa\u09cd\u09f0\u09a3\u09be\u09b2\u09c0": 2757, "\u09aa\u09cd\u09f0\u09a4\u09bf": 2758, "\u09aa\u09cd\u09f0\u09a4\u09bf\u099f\u09cb": 2759, "\u09aa\u09cd\u09f0\u09a4\u09bf\u09a8\u09bf": 2760, "\u09aa\u09cd\u09f0\u09a4\u09bf\u09a8\u09bf\u09a7\u09bf\u09a4\u09cd\u09ac": 2761, "\u09aa\u09cd\u09f0\u09a4\u09bf\u09ab\u09b2": 2762, "\u09aa\u09cd\u09f0\u09a4\u09bf\u09ac\u09be\u09a6": 2763, "\u09aa\u09cd\u09f0\u09a4\u09bf\u09af\u09cb\u0997": 2764, "\u09aa\u09cd\u09f0\u09a4\u09bf\u09af\u09cb\u0997\u09bf\u09a4\u09be": 2765, "\u09aa\u09cd\u09f0\u09a4\u09bf\u09af\u09cb\u0997\u09bf\u09a4\u09be\u09a4": 2766, "\u09aa\u09cd\u09f0\u09a4\u09bf\u09b7\u09cd\u09a0": 2767, "\u09aa\u09cd\u09f0\u09a4\u09bf\u09b7\u09cd\u09a0\u09be": 2768, "\u09aa\u09cd\u09f0\u09a4\u09bf\u09b7\u09cd\u09a0\u09be\u09a8": 2769, "\u09aa\u09cd\u09f0\u09a4\u09bf\u09b7\u09cd\u09a0\u09be\u09a8\u09f0": 2770, "\u09aa\u09cd\u09f0\u09a4\u09bf\u09b7\u09cd\u09a0\u09be\u09aa\u0995": 2771, "\u09aa\u09cd\u09f0\u09a4\u09bf\u09b7\u09cd\u09a0\u09bf\u09a4": 2772, "\u09aa\u09cd\u09f0\u09a4\u09bf\u09f0\u09cb\u09a7": 2773, "\u09aa\u09cd\u09f0\u09a4\u09c0": 2774, "\u09aa\u09cd\u09f0\u09a4\u09c0\u0995": 2775, "\u09aa\u09cd\u09f0\u09a4\u09cd\u09af": 2776, "\u09aa\u09cd\u09f0\u09a4\u09cd\u09af\u0995\u09cd\u09b7": 2777, "\u09aa\u09cd\u09f0\u09a4\u09cd\u09af\u09be": 2778, "\u09aa\u09cd\u09f0\u09a4\u09cd\u09af\u09c7\u0995": 2779, "\u09aa\u09cd\u09f0\u09a5": 2780, "\u09aa\u09cd\u09f0\u09a5\u09ae": 2781, "\u09aa\u09cd\u09f0\u09a5\u09ae\u0996\u09a8": 2782, "\u09aa\u09cd\u09f0\u09a5\u09ae\u099f\u09cb": 2783, "\u09aa\u09cd\u09f0\u09a5\u09ae\u09a4\u09c7": 2784, "\u09aa\u09cd\u09f0\u09a5\u09ae\u09ac\u09be\u09f0\u09f0": 2785, "\u09aa\u09cd\u09f0\u09a5\u09ae\u09c7": 2786, "\u09aa\u09cd\u09f0\u09a5\u09be": 2787, "\u09aa\u09cd\u09f0\u09a6\u09be\u09a8": 2788, "\u09aa\u09cd\u09f0\u09a6\u09c2": 2789, "\u09aa\u09cd\u09f0\u09a6\u09c7\u09b6": 2790, "\u09aa\u09cd\u09f0\u09a6\u09c7\u09b6\u09f0": 2791, "\u09aa\u09cd\u09f0\u09a6\u09f0\u09cd\u09b6": 2792, "\u09aa\u09cd\u09f0\u09a6\u09f0\u09cd\u09b6\u09a8": 2793, "\u09aa\u09cd\u09f0\u09a7\u09be\u09a8": 2794, "\u09aa\u09cd\u09f0\u09a7\u09be\u09a8\u0995\u09c8": 2795, "\u09aa\u09cd\u09f0\u09a7\u09be\u09a8\u09ae\u09a8\u09cd\u09a4\u09cd\u09f0\u09c0": 2796, "\u09aa\u09cd\u09f0\u09ac\u09a8\u09cd\u09a7": 2797, "\u09aa\u09cd\u09f0\u09ac\u09c7\u09b6": 2798, "\u09aa\u09cd\u09f0\u09ac\u09cd\u09b2\u09c7": 2799, "\u09aa\u09cd\u09f0\u09ac\u09cd\u09b2\u09c7\u09ae": 2800, "\u09aa\u09cd\u09f0\u09ad\u09be": 2801, "\u09aa\u09cd\u09f0\u09ad\u09be\u09f1": 2802, "\u09aa\u09cd\u09f0\u09ae\u09be\u09a3": 2803, "\u09aa\u09cd\u09f0\u09af\u09bc\u09cb\u0997": 2804, "\u09aa\u09cd\u09f0\u09af\u09bc\u09cb\u099c\u09a8": 2805, "\u09aa\u09cd\u09f0\u09af\u09bc\u09cb\u099c\u09a8\u0964": 2806, "\u09aa\u09cd\u09f0\u09af\u09bc\u09cb\u099c\u09a8\u09c0\u09af\u09bc": 2807, "\u09aa\u09cd\u09f0\u09af\u09c1\u0995\u09cd\u09a4\u09bf": 2808, "\u09aa\u09cd\u09f0\u09af\u09cb": 2809, "\u09aa\u09cd\u09f0\u09af\u09cb\u099c\u09a8\u09be": 2810, "\u09aa\u09cd\u09f0\u09b6\u0982": 2811, "\u09aa\u09cd\u09f0\u09b6\u0982\u09b8\u09be": 2812, "\u09aa\u09cd\u09f0\u09b6\u09be\u09b8": 2813, "\u09aa\u09cd\u09f0\u09b6\u09be\u09b8\u09a8\u09bf\u0995": 2814, "\u09aa\u09cd\u09f0\u09b6\u09bf\u0995\u09cd\u09b7": 2815, "\u09aa\u09cd\u09f0\u09b6\u09bf\u0995\u09cd\u09b7\u09a3": 2816, "\u09aa\u09cd\u09f0\u09b6\u09cd": 2817, "\u09aa\u09cd\u09f0\u09b6\u09cd\u09a8": 2818, "\u09aa\u09cd\u09f0\u09b8\u09be": 2819, "\u09aa\u09cd\u09f0\u09b8\u09be\u09a6": 2820, "\u09aa\u09cd\u09f0\u09b8\u09be\u09f0": 2821, "\u09aa\u09cd\u09f0\u09b8\u09bf\u09a6\u09cd\u09a7": 2822, "\u09aa\u09cd\u09f0\u09b8\u09cd\u09a4\u09be": 2823, "\u09aa\u09cd\u09f0\u09b8\u09cd\u09a4\u09be\u09f1": 2824, "\u09aa\u09cd\u09f0\u09b8\u09cd\u09a4\u09c1": 2825, "\u09aa\u09cd\u09f0\u09b8\u09cd\u09a4\u09c1\u09a4": 2826, "\u09aa\u09cd\u09f0\u09be": 2827, "\u09aa\u09cd\u09f0\u09be\u0987": 2828, "\u09aa\u09cd\u09f0\u09be\u0995\u09c3\u09a4\u09bf\u0995": 2829, "\u09aa\u09cd\u09f0\u09be\u099a\u09c0\u09a8": 2830, "\u09aa\u09cd\u09f0\u09be\u09a3": 2831, "\u09aa\u09cd\u09f0\u09be\u09a3\u09c0": 2832, "\u09aa\u09cd\u09f0\u09be\u09a3\u09c0\u09f0": 2833, "\u09aa\u09cd\u09f0\u09be\u09a5\u09ae\u09bf\u0995": 2834, "\u09aa\u09cd\u09f0\u09be\u09aa\u09cd\u09a4": 2835, "\u09aa\u09cd\u09f0\u09be\u09af\u09bc": 2836, "\u09aa\u09cd\u09f0\u09be\u09af\u09bc\u09c7": 2837, "\u09aa\u09cd\u09f0\u09be\u09af\u09bc\u09c7\u0987": 2838, "\u09aa\u09cd\u09f0\u09be\u09df": 2839, "\u09aa\u09cd\u09f0\u09be\u09f0": 2840, "\u09aa\u09cd\u09f0\u09be\u09f0\u09ae\u09cd\u09ad\u09bf\u0995": 2841, "\u09aa\u09cd\u09f0\u09be\u09f0\u09cd\u09a5": 2842, "\u09aa\u09cd\u09f0\u09be\u09f0\u09cd\u09a5\u09a8\u09be": 2843, "\u09aa\u09cd\u09f0\u09bf": 2844, "\u09aa\u09cd\u09f0\u09bf\u09af\u09bc": 2845, "\u09aa\u09cd\u09f0\u09c7": 2846, "\u09aa\u09cd\u09f0\u09c7\u09ae": 2847, "\u09aa\u09cd\u09f0\u09c7\u09ae\u09f0": 2848, "\u09aa\u09cd\u09f0\u09c7\u09f0\u09a3": 2849, "\u09aa\u09cd\u09f0\u09df\u09cb": 2850, "\u09aa\u09cd\u09f0\u09df\u09cb\u099c\u09a8": 2851, "\u09aa\u09cd\u09f0\u09f1\u09c7\u09b6": 2852, "\u09aa\u09f0": 2853, "\u09aa\u09f0\u09ae": 2854, "\u09aa\u09f0\u09ae\u09cd": 2855, "\u09aa\u09f0\u09ae\u09cd\u09aa\u09f0\u09be": 2856, "\u09aa\u09f0\u09ae\u09cd\u09aa\u09f0\u09be\u0997\u09a4": 2857, "\u09aa\u09f0\u09b6\u09c1": 2858, "\u09aa\u09f0\u09b6\u09c1\u09f0\u09be\u09ae": 2859, "\u09aa\u09f0\u09be": 2860, "\u09aa\u09f0\u09be\u0964": 2861, "\u09aa\u09f0\u09be\u0987": 2862, "\u09aa\u09f0\u09be\u0993": 2863, "\u09aa\u09f0\u09be\u09ae": 2864, "\u09aa\u09f0\u09be\u09ae\u09f0\u09cd\u09b6": 2865, "\u09aa\u09f0\u09be\u09b8\u09cd\u09a4": 2866, "\u09aa\u09f0\u09be\u09f0": 2867, "\u09aa\u09f0\u09bf": 2868, "\u09aa\u09f0\u09bf\u0995": 2869, "\u09aa\u09f0\u09bf\u0995\u09b2\u09cd\u09aa\u09a8\u09be": 2870, "\u09aa\u09f0\u09bf\u0997\u09a3\u09bf\u09a4": 2871, "\u09aa\u09f0\u09bf\u099a": 2872, "\u09aa\u09f0\u09bf\u099a\u09af\u09bc": 2873, "\u09aa\u09f0\u09bf\u099a\u09be\u09b2": 2874, "\u09aa\u09f0\u09bf\u099a\u09be\u09b2\u0995": 2875, "\u09aa\u09f0\u09bf\u099a\u09be\u09b2\u09a8\u09be": 2876, "\u09aa\u09f0\u09bf\u099a\u09be\u09b2\u09bf\u09a4": 2877, "\u09aa\u09f0\u09bf\u099a\u09bf\u09a4": 2878, "\u09aa\u09f0\u09bf\u099a\u09bf\u09a4\u0964": 2879, "\u09aa\u09f0\u09bf\u099b\u09bf\u09b2": 2880, "\u09aa\u09f0\u09bf\u099b\u09bf\u09b2\u0964": 2881, "\u09aa\u09f0\u09bf\u099b\u09c7": 2882, "\u09aa\u09f0\u09bf\u099b\u09c7\u0964": 2883, "\u09aa\u09f0\u09bf\u09a3\u09a4": 2884, "\u09aa\u09f0\u09bf\u09a7\u09be\u09a8": 2885, "\u09aa\u09f0\u09bf\u09ac": 2886, "\u09aa\u09f0\u09bf\u09ac\u09b9": 2887, "\u09aa\u09f0\u09bf\u09ac\u09c7\u09b6": 2888, "\u09aa\u09f0\u09bf\u09ac\u09c7\u09b6\u09a8": 2889, "\u09aa\u09f0\u09bf\u09ac\u09f0\u09cd\u09a4": 2890, "\u09aa\u09f0\u09bf\u09ac\u09f0\u09cd\u09a4\u09a8": 2891, "\u09aa\u09f0\u09bf\u09ae\u09be": 2892, "\u09aa\u09f0\u09bf\u09ae\u09be\u09a3": 2893, "\u09aa\u09f0\u09bf\u09ae\u09be\u09a3\u09c7": 2894, "\u09aa\u09f0\u09bf\u09af\u09bc\u09be\u09b2": 2895, "\u09aa\u09f0\u09bf\u09af\u09bc\u09be\u09b2\u09a4": 2896, "\u09aa\u09f0\u09bf\u09af\u09bc\u09be\u09b2\u09f0": 2897, "\u09aa\u09f0\u09bf\u09b2": 2898, "\u09aa\u09f0\u09bf\u09b2\u0964": 2899, "\u09aa\u09f0\u09bf\u09b2\u0995\u09cd\u09b7\u09bf\u09a4": 2900, "\u09aa\u09f0\u09bf\u09b7": 2901, "\u09aa\u09f0\u09bf\u09b7\u09a6": 2902, "\u09aa\u09f0\u09bf\u09b7\u09a6\u09f0": 2903, "\u09aa\u09f0\u09bf\u09b8\u09cd\u09a5\u09bf": 2904, "\u09aa\u09f0\u09bf\u09b8\u09cd\u09a5\u09bf\u09a4\u09bf": 2905, "\u09aa\u09f0\u09bf\u09f1\u09c7\u09b6": 2906, "\u09aa\u09f0\u09bf\u09f1\u09c7\u09b6\u09a8": 2907, "\u09aa\u09f0\u09bf\u09f1\u09f0\u09cd": 2908, "\u09aa\u09f0\u09bf\u09f1\u09f0\u09cd\u09a4\u09a8": 2909, "\u09aa\u09f0\u09c0": 2910, "\u09aa\u09f0\u09c0\u0995\u09cd\u09b7": 2911, "\u09aa\u09f0\u09c0\u0995\u09cd\u09b7\u09be": 2912, "\u09aa\u09f0\u09c0\u0995\u09cd\u09b7\u09be\u09a4": 2913, "\u09aa\u09f0\u09c1\u09f1\u09be": 2914, "\u09aa\u09f0\u09c7": 2915, "\u09aa\u09f0\u09c7\u0964": 2916, "\u09aa\u09f0\u09cd": 2917, "\u09aa\u09f0\u09cd\u099f": 2918, "\u09aa\u09f0\u09cd\u09ac": 2919, "\u09aa\u09f0\u09cd\u09ac\u09a4": 2920, "\u09aa\u09f0\u09cd\u09af": 2921, "\u09aa\u09f0\u09cd\u09af\u099f": 2922, "\u09aa\u09f0\u09cd\u09af\u099f\u0995\u09f0": 2923, "\u09aa\u09f0\u09cd\u09af\u099f\u09a8": 2924, "\u09aa\u09f0\u09cd\u09af\u09a8\u09cd\u09a4": 2925, "\u09aa\u09f0\u09cd\u09af\u09be": 2926, "\u09aa\u09f0\u09cd\u09af\u09be\u09af\u09bc\u09a4": 2927, "\u09aa\u09f0\u09cd\u09af\u09be\u09af\u09bc\u09f0": 2928, "\u09aa\u09f0\u09cd\u09af\u09cd\u09af": 2929, "\u09aa\u09f0\u09f1\u09f0\u09cd\u09a4\u09c0": 2930, "\u09aa\u09f1\u09bf\u09a4\u09cd\u09f0": 2931, "\u09ab\u099f\u09cb": 2932, "\u09ab\u09b2": 2933, "\u09ab\u09b2\u09a4": 2934, "\u09ab\u09b2\u09be": 2935, "\u09ab\u09be": 2936, "\u09ab\u09be\u0987": 2937, "\u09ab\u09be\u0987\u09ad": 2938, "\u09ab\u09be\u0989\u09a3\u09cd\u09a1\u09c7": 2939, "\u09ab\u09be\u09b2": 2940, "\u09ab\u09be\u09b2\u09c7": 2941, "\u09ab\u09be\u09b2\u09f0": 2942, "\u09ab\u09be\u09f0": 2943, "\u09ab\u09be\u09f0\u09cd": 2944, "\u09ab\u09be\u09f0\u09cd\u09b7\u09cd\u099f": 2945, "\u09ab\u09bf": 2946, "\u09ab\u09bf\u09b2": 2947, "\u09ab\u09bf\u09b2\u09cd": 2948, "\u09ab\u09bf\u09b2\u09cd\u09ae": 2949, "\u09ab\u09c0": 2950, "\u09ab\u09c1": 2951, "\u09ab\u09c1\u0995": 2952, "\u09ab\u09c1\u0995\u09a8": 2953, "\u09ab\u09c1\u0995\u09a8\u09f0": 2954, "\u09ab\u09c1\u099f": 2955, "\u09ab\u09c1\u099f\u09ac\u09b2": 2956, "\u09ab\u09c1\u09b2": 2957, "\u09ab\u09c1\u09b2\u09f0": 2958, "\u09ab\u09c1\u09f0\u09be": 2959, "\u09ab\u09c1\u09f0\u09bf": 2960, "\u09ab\u09c1\u09f0\u09bf\u09ac\u09b2\u09c8": 2961, "\u09ab\u09c7": 2962, "\u09ab\u09c7\u099a": 2963, "\u09ab\u09c7\u09ac\u09cd\u09f0\u09c1\u09f1\u09be\u09f0": 2964, "\u09ab\u09c7\u09ac\u09cd\u09f0\u09c1\u09f1\u09be\u09f0\u09c0": 2965, "\u09ab\u09c7\u09ac\u09cd\u09f0\u09c1\u09f1\u09be\u09f0\u09c0\u09a4": 2966, "\u09ab\u09c7\u09af\u09bc\u09be\u09f0": 2967, "\u09ab\u09cb": 2968, "\u09ab\u09cb\u09a8": 2969, "\u09ab\u09cd": 2970, "\u09ab\u09cd\u09b2\u09bf": 2971, "\u09ab\u09cd\u09b2\u09bf\u09aa": 2972, "\u09ab\u09cd\u09b2\u09bf\u09aa\u0995\u09be\u09f0\u09cd": 2973, "\u09ab\u09cd\u09f0": 2974, "\u09ab\u09cd\u09f0\u09be\u09a8\u09cd": 2975, "\u09ab\u09cd\u09f0\u09c7": 2976, "\u09ab\u09f0": 2977, "\u09ab\u09f0\u09be": 2978, "\u09ab\u09f0\u09cd": 2979, "\u09ac\u0964": 2980, "\u09ac\u0981": 2981, "\u09ac\u0981\u099f\u09be": 2982, "\u09ac\u0982": 2983, "\u09ac\u0982\u0997": 2984, "\u09ac\u0982\u09b6": 2985, "\u09ac\u0982\u09b6\u09f0": 2986, "\u09ac\u0987": 2987, "\u09ac\u0995\u09cd\u09a4": 2988, "\u09ac\u0995\u09cd\u09a4\u09be": 2989, "\u09ac\u0997\u09be": 2990, "\u09ac\u0999": 2991, "\u09ac\u0999\u09be\u09b2\u09c0": 2992, "\u09ac\u099b": 2993, "\u09ac\u099b\u09f0": 2994, "\u09ac\u099b\u09f0\u099f\u09cb": 2995, "\u09ac\u099b\u09f0\u09a4": 2996, "\u09ac\u099b\u09f0\u09c0\u09af\u09bc\u09be": 2997, "\u09ac\u099b\u09f0\u09c7": 2998, "\u09ac\u099b\u09f0\u09f0": 2999, "\u09ac\u099c": 3000, "\u09ac\u099c\u09be\u0987": 3001, "\u09ac\u099c\u09be\u09a4": 3002, "\u09ac\u099c\u09be\u09f0": 3003, "\u09ac\u099c\u09be\u09f0\u09a4": 3004, "\u09ac\u09a1\u09bc": 3005, "\u09ac\u09a1\u09bc\u09cb": 3006, "\u09ac\u09a2\u09bc": 3007, "\u09ac\u09a4\u09be": 3008, "\u09ac\u09a4\u09f0": 3009, "\u09ac\u09a6": 3010, "\u09ac\u09a6\u09cd\u09a7": 3011, "\u09ac\u09a7": 3012, "\u09ac\u09a8": 3013, "\u09ac\u09a8\u09be": 3014, "\u09ac\u09a8\u09be\u0987": 3015, "\u09ac\u09a8\u09cb\u09f1\u09be": 3016, "\u09ac\u09a8\u09cd\u09a6": 3017, "\u09ac\u09a8\u09cd\u09a6\u09c0": 3018, "\u09ac\u09a8\u09cd\u09a6\u09f0": 3019, "\u09ac\u09a8\u09cd\u09a7": 3020, "\u09ac\u09a8\u09cd\u09a7\u09c1": 3021, "\u09ac\u09a8\u09cd\u09af": 3022, "\u09ac\u09a8\u09f0": 3023, "\u09ac\u09af\u09bc": 3024, "\u09ac\u09af\u09bc\u09b8": 3025, "\u09ac\u09af\u09bc\u09b8\u09a4": 3026, "\u09ac\u09af\u09bc\u09b8\u09a4\u09c7": 3027, "\u09ac\u09b2": 3028, "\u09ac\u09b2\u09bf": 3029, "\u09ac\u09b2\u09bf\u0989": 3030, "\u09ac\u09b2\u09c7": 3031, "\u09ac\u09b2\u09c8": 3032, "\u09ac\u09b8": 3033, "\u09ac\u09b8\u09a4\u09bf": 3034, "\u09ac\u09b8\u09a8\u09cd\u09a4": 3035, "\u09ac\u09b8\u09ac\u09be\u09b8": 3036, "\u09ac\u09b8\u09cd\u09a4\u09c1": 3037, "\u09ac\u09b8\u09cd\u09a4\u09c1\u099f\u09cb": 3038, "\u09ac\u09b8\u09cd\u09a4\u09c1\u09f0": 3039, "\u09ac\u09b8\u09cd\u09a4\u09cd\u09f0": 3040, "\u09ac\u09b9": 3041, "\u09ac\u09b9\u09a8": 3042, "\u09ac\u09b9\u09b2": 3043, "\u09ac\u09b9\u09be": 3044, "\u09ac\u09b9\u09be\u0997": 3045, "\u09ac\u09b9\u09be\u09f0": 3046, "\u09ac\u09b9\u09bf": 3047, "\u09ac\u09b9\u09c1": 3048, "\u09ac\u09b9\u09c1\u09a4": 3049, "\u09ac\u09b9\u09c1\u09a4\u09c7": 3050, "\u09ac\u09b9\u09c1\u09a4\u09cb": 3051, "\u09ac\u09b9\u09c1\u09b2": 3052, "\u09ac\u09b9\u09c1\u09b2\u09ad\u09be\u09f1\u09c7": 3053, "\u09ac\u09be": 3054, "\u09ac\u09be\u0964": 3055, "\u09ac\u09be\u0981": 3056, "\u09ac\u09be\u0981\u09b9": 3057, "\u09ac\u09be\u0981\u09b9\u09c0": 3058, "\u09ac\u09be\u0981\u09b9\u09f0": 3059, "\u09ac\u09be\u0982": 3060, "\u09ac\u09be\u0982\u09b2\u09be": 3061, "\u09ac\u09be\u0982\u09b2\u09be\u09a6\u09c7\u09b6": 3062, "\u09ac\u09be\u0982\u09b2\u09be\u09a6\u09c7\u09b6\u09f0": 3063, "\u09ac\u09be\u0987": 3064, "\u09ac\u09be\u0987\u0995": 3065, "\u09ac\u09be\u0987\u09b2": 3066, "\u09ac\u09be\u0995": 3067, "\u09ac\u09be\u0995\u09b2\u09bf": 3068, "\u09ac\u09be\u0995\u09c0": 3069, "\u09ac\u09be\u0995\u09cd\u09af": 3070, "\u09ac\u09be\u0997": 3071, "\u09ac\u09be\u0997\u09be\u09a8": 3072, "\u09ac\u09be\u0997\u09bf": 3073, "\u09ac\u09be\u0998": 3074, "\u09ac\u09be\u099a\u09bf": 3075, "\u09ac\u09be\u099b": 3076, "\u09ac\u09be\u099c\u09c7": 3077, "\u09ac\u09be\u099f": 3078, "\u09ac\u09be\u09a2\u09bc": 3079, "\u09ac\u09be\u09a2\u09bc\u09bf": 3080, "\u09ac\u09be\u09a3\u09bf": 3081, "\u09ac\u09be\u09a3\u09bf\u099c\u09cd\u09af": 3082, "\u09ac\u09be\u09a3\u09bf\u099c\u09cd\u09af\u09bf\u0995": 3083, "\u09ac\u09be\u09a3\u09c0": 3084, "\u09ac\u09be\u09a4": 3085, "\u09ac\u09be\u09a4\u09f0\u09bf": 3086, "\u09ac\u09be\u09a6": 3087, "\u09ac\u09be\u09a6\u09c0": 3088, "\u09ac\u09be\u09a6\u09c7": 3089, "\u09ac\u09be\u09a6\u09cd\u09af": 3090, "\u09ac\u09be\u09a6\u09cd\u09af\u09af\u09a8\u09cd\u09a4\u09cd\u09f0": 3091, "\u09ac\u09be\u09a6\u09f0": 3092, "\u09ac\u09be\u09a7\u09be": 3093, "\u09ac\u09be\u09a7\u09cd\u09af": 3094, "\u09ac\u09be\u09a8": 3095, "\u09ac\u09be\u09a8\u09cd": 3096, "\u09ac\u09be\u09a8\u09cd\u09a7": 3097, "\u09ac\u09be\u09a8\u09cd\u09a7\u09bf": 3098, "\u09ac\u09be\u09ac": 3099, "\u09ac\u09be\u09ac\u09c7": 3100, "\u09ac\u09be\u09ac\u09c7\u0987": 3101, "\u09ac\u09be\u09ac\u09c7\u0993": 3102, "\u09ac\u09be\u09af\u09bc": 3103, "\u09ac\u09be\u09af\u09bc\u09c1": 3104, "\u09ac\u09be\u09b2": 3105, "\u09ac\u09be\u09b2\u09be": 3106, "\u09ac\u09be\u09b2\u09bf": 3107, "\u09ac\u09be\u09b8": 3108, "\u09ac\u09be\u09b8\u09bf": 3109, "\u09ac\u09be\u09b8\u09c0": 3110, "\u09ac\u09be\u09b8\u09cd\u09a4": 3111, "\u09ac\u09be\u09b8\u09cd\u09a4\u09f1": 3112, "\u09ac\u09be\u09b9": 3113, "\u09ac\u09be\u09b9\u09be": 3114, "\u09ac\u09be\u09b9\u09bf": 3115, "\u09ac\u09be\u09b9\u09bf\u0995": 3116, "\u09ac\u09be\u09b9\u09bf\u09a4": 3117, "\u09ac\u09be\u09b9\u09bf\u09a8\u09c0": 3118, "\u09ac\u09be\u09b9\u09bf\u09a8\u09c0\u09f0": 3119, "\u09ac\u09be\u09b9\u09bf\u09f0": 3120, "\u09ac\u09be\u09b9\u09bf\u09f0\u09a4": 3121, "\u09ac\u09be\u09b9\u09bf\u09f0\u09b2\u09c8": 3122, "\u09ac\u09be\u09b9\u09bf\u09f0\u09c7": 3123, "\u09ac\u09be\u09b9\u09bf\u09f0\u09c7\u0993": 3124, "\u09ac\u09be\u09b9\u09bf\u09f0\u09f0": 3125, "\u09ac\u09be\u09b9\u09c0": 3126, "\u09ac\u09be\u09b9\u09f0": 3127, "\u09ac\u09be\u09f0": 3128, "\u09ac\u09be\u09f0\u0995\u09c8": 3129, "\u09ac\u09be\u09f0\u09c0": 3130, "\u09ac\u09be\u09f0\u09c1": 3131, "\u09ac\u09be\u09f0\u09c1\u0964": 3132, "\u09ac\u09be\u09f0\u09c7": 3133, "\u09ac\u09be\u09f0\u09cb": 3134, "\u09ac\u09be\u09f0\u09cd": 3135, "\u09ac\u09be\u09f0\u09cd\u09b7\u09bf\u0995": 3136, "\u09ac\u09be\u09f0\u09f0": 3137, "\u09ac\u09bf": 3138, "\u09ac\u09bf\u0982\u09b6": 3139, "\u09ac\u09bf\u0995": 3140, "\u09ac\u09bf\u0995\u09be\u09b6": 3141, "\u09ac\u09bf\u0995\u09be\u09b6\u09f0": 3142, "\u09ac\u09bf\u0995\u09cd\u09f0\u09c0": 3143, "\u09ac\u09bf\u0996\u09cd\u09af\u09be\u09a4": 3144, "\u09ac\u09bf\u0996\u09cd\u09af\u09be\u09a4\u0964": 3145, "\u09ac\u09bf\u099a\u09be\u09f0": 3146, "\u09ac\u09bf\u099a\u09be\u09f0\u09bf": 3147, "\u09ac\u09bf\u099a\u09be\u09f0\u09c7": 3148, "\u09ac\u09bf\u099a\u09f0\u09be": 3149, "\u09ac\u09bf\u099b": 3150, "\u09ac\u09bf\u099c": 3151, "\u09ac\u09bf\u099c\u09af\u09bc": 3152, "\u09ac\u09bf\u099c\u09af\u09bc\u09c0": 3153, "\u09ac\u09bf\u099c\u09c7": 3154, "\u09ac\u09bf\u099c\u09c7\u09aa\u09bf": 3155, "\u09ac\u09bf\u099c\u09cd\u099e\u09be\u09a8": 3156, "\u09ac\u09bf\u099c\u09cd\u099e\u09be\u09a8\u09a4": 3157, "\u09ac\u09bf\u099c\u09cd\u099e\u09be\u09a8\u09c0": 3158, "\u09ac\u09bf\u099c\u09cd\u099e\u09be\u09a8\u09f0": 3159, "\u09ac\u09bf\u09a4": 3160, "\u09ac\u09bf\u09a4\u09cd\u09a4": 3161, "\u09ac\u09bf\u09a4\u09cd\u09f0": 3162, "\u09ac\u09bf\u09a4\u09f0": 3163, "\u09ac\u09bf\u09a4\u09f0\u09a3": 3164, "\u09ac\u09bf\u09a6": 3165, "\u09ac\u09bf\u09a6\u09c7\u09b6": 3166, "\u09ac\u09bf\u09a6\u09c7\u09b6\u09c0": 3167, "\u09ac\u09bf\u09a6\u09cd\u09af": 3168, "\u09ac\u09bf\u09a6\u09cd\u09af\u09be": 3169, "\u09ac\u09bf\u09a6\u09cd\u09af\u09be\u09b2": 3170, "\u09ac\u09bf\u09a6\u09cd\u09af\u09be\u09b2\u09af\u09bc": 3171, "\u09ac\u09bf\u09a6\u09cd\u09af\u09be\u09b2\u09af\u09bc\u09a4": 3172, "\u09ac\u09bf\u09a6\u09cd\u09af\u09be\u09b2\u09af\u09bc\u09f0": 3173, "\u09ac\u09bf\u09a6\u09cd\u09af\u09c1\u09ce": 3174, "\u09ac\u09bf\u09a6\u09cd\u09f0\u09cb": 3175, "\u09ac\u09bf\u09a6\u09cd\u09f0\u09cb\u09b9\u09c0": 3176, "\u09ac\u09bf\u09a7": 3177, "\u09ac\u09bf\u09a7\u09be": 3178, "\u09ac\u09bf\u09a7\u09be\u09a8": 3179, "\u09ac\u09bf\u09a7\u09be\u09a8\u09b8\u09ad\u09be": 3180, "\u09ac\u09bf\u09a7\u09be\u09f0": 3181, "\u09ac\u09bf\u09a7\u09bf": 3182, "\u09ac\u09bf\u09a7\u09c7": 3183, "\u09ac\u09bf\u09a7\u09f0": 3184, "\u09ac\u09bf\u09a8": 3185, "\u09ac\u09bf\u09a8\u09cd\u09a6\u09c1": 3186, "\u09ac\u09bf\u09aa\u09cd\u09b2": 3187, "\u09ac\u09bf\u09aa\u09f0\u09c0": 3188, "\u09ac\u09bf\u09aa\u09f0\u09c0\u09a4\u09c7": 3189, "\u09ac\u09bf\u09ac\u09be\u09b9": 3190, "\u09ac\u09bf\u09ac\u09be\u09b9\u09aa\u09be\u09b6\u09a4": 3191, "\u09ac\u09bf\u09ac\u09be\u09b9\u09f0": 3192, "\u09ac\u09bf\u09ac\u09c7": 3193, "\u09ac\u09bf\u09ac\u09c7\u0995\u09be\u09a8": 3194, "\u09ac\u09bf\u09ac\u09c7\u0995\u09be\u09a8\u09a8\u09cd\u09a6": 3195, "\u09ac\u09bf\u09ad\u0995\u09cd\u09a4": 3196, "\u09ac\u09bf\u09ad\u09be": 3197, "\u09ac\u09bf\u09ad\u09be\u0997": 3198, "\u09ac\u09bf\u09ad\u09be\u0997\u09a4": 3199, "\u09ac\u09bf\u09ad\u09be\u0997\u09f0": 3200, "\u09ac\u09bf\u09ad\u09be\u099c\u09a8": 3201, "\u09ac\u09bf\u09ad\u09bf\u09a8\u09cd\u09a8": 3202, "\u09ac\u09bf\u09ae\u09be\u09a8": 3203, "\u09ac\u09bf\u09af\u09bc": 3204, "\u09ac\u09bf\u09af\u09bc\u09aa\u09bf": 3205, "\u09ac\u09bf\u09af\u09bc\u09be": 3206, "\u09ac\u09bf\u09af\u09bc\u09be\u09f0": 3207, "\u09ac\u09bf\u09b2": 3208, "\u09ac\u09bf\u09b2\u09be": 3209, "\u09ac\u09bf\u09b2\u09be\u0995": 3210, "\u09ac\u09bf\u09b2\u09be\u0995\u09a4": 3211, "\u09ac\u09bf\u09b2\u09be\u0995\u09c7": 3212, "\u09ac\u09bf\u09b2\u09be\u0995\u09f0": 3213, "\u09ac\u09bf\u09b6": 3214, "\u09ac\u09bf\u09b6\u09be\u09b2": 3215, "\u09ac\u09bf\u09b6\u09bf\u09b7\u09cd\u099f": 3216, "\u09ac\u09bf\u09b6\u09c7\u09b7": 3217, "\u09ac\u09bf\u09b6\u09c7\u09b7\u0995\u09c8": 3218, "\u09ac\u09bf\u09b6\u09c7\u09b7\u09c7": 3219, "\u09ac\u09bf\u09b6\u09cd": 3220, "\u09ac\u09bf\u09b6\u09cd\u09ac": 3221, "\u09ac\u09bf\u09b6\u09cd\u09ac\u09a4": 3222, "\u09ac\u09bf\u09b6\u09cd\u09ac\u09a8\u09be\u09a5": 3223, "\u09ac\u09bf\u09b6\u09cd\u09ac\u09ac\u09bf\u09a6\u09cd\u09af\u09be\u09b2\u09af\u09bc": 3224, "\u09ac\u09bf\u09b6\u09cd\u09ac\u09ac\u09bf\u09a6\u09cd\u09af\u09be\u09b2\u09af\u09bc\u09a4": 3225, "\u09ac\u09bf\u09b6\u09cd\u09ac\u09ac\u09bf\u09a6\u09cd\u09af\u09be\u09b2\u09af\u09bc\u09f0": 3226, "\u09ac\u09bf\u09b6\u09cd\u09ac\u09af\u09c1\u09a6\u09cd\u09a7\u09f0": 3227, "\u09ac\u09bf\u09b6\u09cd\u09ac\u09be\u09b8": 3228, "\u09ac\u09bf\u09b6\u09cd\u09ac\u09f0": 3229, "\u09ac\u09bf\u09b6\u09cd\u09b2\u09c7": 3230, "\u09ac\u09bf\u09b6\u09cd\u09b2\u09c7\u09b7\u09a3": 3231, "\u09ac\u09bf\u09b7": 3232, "\u09ac\u09bf\u09b7\u09af\u09bc": 3233, "\u09ac\u09bf\u09b7\u09af\u09bc\u0995": 3234, "\u09ac\u09bf\u09b7\u09af\u09bc\u09a4": 3235, "\u09ac\u09bf\u09b7\u09af\u09bc\u09be": 3236, "\u09ac\u09bf\u09b7\u09af\u09bc\u09c7": 3237, "\u09ac\u09bf\u09b7\u09af\u09bc\u09f0": 3238, "\u09ac\u09bf\u09b7\u09be": 3239, "\u09ac\u09bf\u09b7\u09cd\u099f": 3240, "\u09ac\u09bf\u09b7\u09cd\u09a3": 3241, "\u09ac\u09bf\u09b7\u09cd\u09a3\u09c1": 3242, "\u09ac\u09bf\u09b7\u09cd\u09a3\u09c1\u09f0": 3243, "\u09ac\u09bf\u09b7\u09df": 3244, "\u09ac\u09bf\u09b7\u09df\u09c7": 3245, "\u09ac\u09bf\u09b8\u09cd": 3246, "\u09ac\u09bf\u09b8\u09cd\u09a4": 3247, "\u09ac\u09bf\u09b8\u09cd\u09a4\u09be\u09f0": 3248, "\u09ac\u09bf\u09b8\u09cd\u09a4\u09c3\u09a4": 3249, "\u09ac\u09bf\u09b9\u09be\u09f0": 3250, "\u09ac\u09bf\u09b9\u09c1": 3251, "\u09ac\u09bf\u09b9\u09c1\u09a4": 3252, "\u09ac\u09bf\u09b9\u09c1\u09f0": 3253, "\u09ac\u09bf\u09f0": 3254, "\u09ac\u09bf\u09f0\u09be": 3255, "\u09ac\u09bf\u09f0\u09c1\u09a6\u09cd\u09a7": 3256, "\u09ac\u09bf\u09f0\u09c1\u09a6\u09cd\u09a7\u09c7": 3257, "\u09ac\u09bf\u09f0\u09cb\u09a7": 3258, "\u09ac\u09bf\u09f0\u09cb\u09a7\u09c0": 3259, "\u09ac\u09c0": 3260, "\u09ac\u09c0\u099c": 3261, "\u09ac\u09c0\u09a4": 3262, "\u09ac\u09c0\u09f0": 3263, "\u09ac\u09c1": 3264, "\u09ac\u09c1\u0995": 3265, "\u09ac\u09c1\u0995\u09c1": 3266, "\u09ac\u09c1\u099c\u09be": 3267, "\u09ac\u09c1\u099c\u09bf": 3268, "\u09ac\u09c1\u09a2\u09bc": 3269, "\u09ac\u09c1\u09a2\u09bc\u09be": 3270, "\u09ac\u09c1\u09a6\u09cd\u09a7": 3271, "\u09ac\u09c1\u09a6\u09cd\u09a7\u09bf": 3272, "\u09ac\u09c1\u09b2": 3273, "\u09ac\u09c1\u09b2\u09bf": 3274, "\u09ac\u09c1\u09b2\u09bf\u0993": 3275, "\u09ac\u09c1\u09f0": 3276, "\u09ac\u09c1\u09f0\u099e\u09cd\u099c": 3277, "\u09ac\u09c1\u09f0\u099e\u09cd\u099c\u09c0": 3278, "\u09ac\u09c1\u09f0\u09c0": 3279, "\u09ac\u09c3": 3280, "\u09ac\u09c3\u09a4\u09cd": 3281, "\u09ac\u09c3\u09a4\u09cd\u09a4": 3282, "\u09ac\u09c3\u09a4\u09cd\u09a4\u09bf": 3283, "\u09ac\u09c3\u09a6\u09cd\u09a7": 3284, "\u09ac\u09c3\u09a6\u09cd\u09a7\u09bf": 3285, "\u09ac\u09c3\u09a6\u09cd\u09a7\u09bf\u09f0": 3286, "\u09ac\u09c3\u09b9": 3287, "\u09ac\u09c3\u09b9\u09a4\u09cd\u09a4\u09ae": 3288, "\u09ac\u09c3\u09b9\u09ce": 3289, "\u09ac\u09c7": 3290, "\u09ac\u09c7\u0982\u0995": 3291, "\u09ac\u09c7\u0982\u0995\u09f0": 3292, "\u09ac\u09c7\u0987": 3293, "\u09ac\u09c7\u0993": 3294, "\u09ac\u09c7\u0995": 3295, "\u09ac\u09c7\u0997": 3296, "\u09ac\u09c7\u099a\u09bf": 3297, "\u09ac\u09c7\u099b\u09bf": 3298, "\u09ac\u09c7\u099b\u09bf\u0964": 3299, "\u09ac\u09c7\u099b\u09bf\u0995": 3300, "\u09ac\u09c7\u099b\u09bf\u0995\u09c8": 3301, "\u09ac\u09c7\u099b\u09bf\u09ad\u09be\u0997": 3302, "\u09ac\u09c7\u099c": 3303, "\u09ac\u09c7\u09a6": 3304, "\u09ac\u09c7\u09a6\u09a8": 3305, "\u09ac\u09c7\u09ae\u09be\u09f0": 3306, "\u09ac\u09c7\u09af\u09bc\u09be": 3307, "\u09ac\u09c7\u09b2": 3308, "\u09ac\u09c7\u09b2\u09be": 3309, "\u09ac\u09c7\u09b2\u09bf": 3310, "\u09ac\u09c7\u09b2\u09c7": 3311, "\u09ac\u09c7\u09b2\u09c7\u0997": 3312, "\u09ac\u09c7\u09b6": 3313, "\u09ac\u09c7\u09b7\u09cd\u099f": 3314, "\u09ac\u09c7\u09df\u09be": 3315, "\u09ac\u09c8": 3316, "\u09ac\u09c8\u099a\u09bf\u09a4\u09cd\u09f0": 3317, "\u09ac\u09c8\u099c\u09cd\u099e\u09be\u09a8": 3318, "\u09ac\u09c8\u099c\u09cd\u099e\u09be\u09a8\u09bf\u0995": 3319, "\u09ac\u09c8\u09a6\u09bf\u0995": 3320, "\u09ac\u09c8\u09b6\u09bf\u09b7\u09cd\u099f": 3321, "\u09ac\u09c8\u09b6\u09bf\u09b7\u09cd\u099f\u09cd\u09af": 3322, "\u09ac\u09c8\u09b7\u09cd\u09a3": 3323, "\u09ac\u09c8\u09b7\u09cd\u09a3\u09f1": 3324, "\u09ac\u09cb": 3325, "\u09ac\u09cb\u09a7": 3326, "\u09ac\u09cb\u09b2": 3327, "\u09ac\u09cb\u09b2\u099b\u09ac\u09bf": 3328, "\u09ac\u09cb\u09b2\u09be": 3329, "\u09ac\u09cb\u09b2\u09c7": 3330, "\u09ac\u09cb\u09b2\u09c7\u0964": 3331, "\u09ac\u09cb\u09b2\u09cb": 3332, "\u09ac\u09cb\u09f0": 3333, "\u09ac\u09cb\u09f0\u0995": 3334, "\u09ac\u09cb\u09f0\u09a4": 3335, "\u09ac\u09cb\u09f0\u09c7": 3336, "\u09ac\u09cb\u09f0\u09f0": 3337, "\u09ac\u09cb\u09f1\u09be": 3338, "\u09ac\u09cc": 3339, "\u09ac\u09cc\u09a6\u09cd\u09a7": 3340, "\u09ac\u09cd": 3341, "\u09ac\u09cd\u09a6": 3342, "\u09ac\u09cd\u09a6\u09f0": 3343, "\u09ac\u09cd\u09ac": 3344, "\u09ac\u09cd\u09ac\u09bf\u099b": 3345, "\u09ac\u09cd\u09ac\u09c8": 3346, "\u09ac\u09cd\u09af": 3347, "\u09ac\u09cd\u09af\u0995\u09cd\u09a4\u09bf": 3348, "\u09ac\u09cd\u09af\u0995\u09cd\u09a4\u09bf\u0964": 3349, "\u09ac\u09cd\u09af\u0995\u09cd\u09a4\u09bf\u0997\u09a4": 3350, "\u09ac\u09cd\u09af\u0995\u09cd\u09a4\u09bf\u09f0": 3351, "\u09ac\u09cd\u09af\u09b8\u09cd\u09a4": 3352, "\u09ac\u09cd\u09af\u09be": 3353, "\u09ac\u09cd\u09af\u09be\u0996\u09cd\u09af\u09be": 3354, "\u09ac\u09cd\u09af\u09be\u09aa\u0995": 3355, "\u09ac\u09cd\u09af\u09be\u09b9\u09a4": 3356, "\u09ac\u09cd\u09af\u09f1": 3357, "\u09ac\u09cd\u09af\u09f1\u09b8\u09be": 3358, "\u09ac\u09cd\u09af\u09f1\u09b8\u09be\u09af\u09bc": 3359, "\u09ac\u09cd\u09af\u09f1\u09b8\u09be\u09af\u09bc\u09bf\u0995": 3360, "\u09ac\u09cd\u09af\u09f1\u09b8\u09cd\u09a5\u09be": 3361, "\u09ac\u09cd\u09af\u09f1\u09b8\u09cd\u09a5\u09be\u09f0": 3362, "\u09ac\u09cd\u09af\u09f1\u09b9\u09be\u09f0": 3363, "\u09ac\u09cd\u09af\u09f1\u09b9\u09be\u09f0\u09f0": 3364, "\u09ac\u09cd\u09af\u09f1\u09b9\u09c3\u09a4": 3365, "\u09ac\u09cd\u09b2\u09c7": 3366, "\u09ac\u09cd\u09df": 3367, "\u09ac\u09cd\u09df\u09f1": 3368, "\u09ac\u09cd\u09df\u09f1\u09b9\u09be\u09f0": 3369, "\u09ac\u09cd\u09f0": 3370, "\u09ac\u09cd\u09f0\u09b9\u09cd": 3371, "\u09ac\u09cd\u09f0\u09b9\u09cd\u09ae": 3372, "\u09ac\u09cd\u09f0\u09b9\u09cd\u09ae\u09aa\u09c1\u09a4\u09cd\u09f0": 3373, "\u09ac\u09cd\u09f0\u09b9\u09cd\u09ae\u09aa\u09c1\u09a4\u09cd\u09f0\u09f0": 3374, "\u09ac\u09cd\u09f0\u09b9\u09cd\u09ae\u09be": 3375, "\u09ac\u09cd\u09f0\u09be": 3376, "\u09ac\u09cd\u09f0\u09be\u09b9\u09cd\u09ae": 3377, "\u09ac\u09cd\u09f0\u09be\u09b9\u09cd\u09ae\u09a3": 3378, "\u09ac\u09cd\u09f0\u09bf": 3379, "\u09ac\u09cd\u09f0\u09bf\u099f\u09bf": 3380, "\u09ac\u09cd\u09f0\u09bf\u099f\u09bf\u099b": 3381, "\u09ac\u09cd\u09f0\u09bf\u099f\u09bf\u099b\u09f0": 3382, "\u09ac\u09cd\u09f0\u09c1": 3383, "\u09ac\u09cd\u09f0\u09c1\u09f1\u09be\u09f0": 3384, "\u09ac\u09cd\u09f0\u09c7": 3385, "\u09ac\u09f0": 3386, "\u09ac\u09f0\u0999": 3387, "\u09ac\u09f0\u09a3": 3388, "\u09ac\u09f0\u09a6": 3389, "\u09ac\u09f0\u09a6\u09b2\u09c8": 3390, "\u09ac\u09f0\u09aa\u09c7": 3391, "\u09ac\u09f0\u09aa\u09c7\u099f\u09be": 3392, "\u09ac\u09f0\u09b7": 3393, "\u09ac\u09f0\u09b7\u09c1\u09a3": 3394, "\u09ac\u09f0\u09be": 3395, "\u09ac\u09f0\u09c1": 3396, "\u09ac\u09f0\u09c1\u09f1\u09be": 3397, "\u09ac\u09f0\u09c1\u09f1\u09be\u0964": 3398, "\u09ac\u09f0\u09c1\u09f1\u09be\u0987": 3399, "\u09ac\u09f0\u09c1\u09f1\u09be\u09f0": 3400, "\u09ac\u09f0\u09cd": 3401, "\u09ac\u09f0\u09cd\u0997": 3402, "\u09ac\u09f0\u09cd\u09a3": 3403, "\u09ac\u09f0\u09cd\u09a3\u09a8\u09be": 3404, "\u09ac\u09f0\u09cd\u09a4": 3405, "\u09ac\u09f0\u09cd\u09a4\u09ae\u09be\u09a8": 3406, "\u09ac\u09f0\u09cd\u09a4\u09ae\u09be\u09a8\u09c7": 3407, "\u09ac\u09f0\u09cd\u09a4\u09ae\u09be\u09a8\u09f0": 3408, "\u09ac\u09f0\u09cd\u09a4\u09c0": 3409, "\u09ac\u09f0\u09cd\u09ae\u09a8": 3410, "\u09ac\u09f0\u09cd\u09b7": 3411, "\u09ac\u09f0\u09cd\u09b7\u09a4": 3412, "\u09ac\u09f0\u09cd\u09b7\u09f0": 3413, "\u09ac\u09f0\u09f0": 3414, "\u09ad\u0981": 3415, "\u09ad\u0981\u09f0\u09be\u09b2": 3416, "\u09ad\u0982\u0997": 3417, "\u09ad\u0995\u09a4": 3418, "\u09ad\u0995\u09cd\u09a4": 3419, "\u09ad\u0995\u09cd\u09a4\u09bf": 3420, "\u09ad\u0997": 3421, "\u09ad\u0997\u09cd": 3422, "\u09ad\u0997\u09cd\u09a8\u09be": 3423, "\u09ad\u0997\u09f1": 3424, "\u09ad\u0997\u09f1\u09be\u09a8": 3425, "\u09ad\u099f\u09cd": 3426, "\u09ad\u099f\u09cd\u099f\u09be": 3427, "\u09ad\u099f\u09cd\u099f\u09be\u099a\u09be\u09f0\u09cd\u09af": 3428, "\u09ad\u09a4": 3429, "\u09ad\u09ac\u09be": 3430, "\u09ad\u09af\u09bc": 3431, "\u09ad\u09be": 3432, "\u09ad\u09be\u0987": 3433, "\u09ad\u09be\u0987\u09f0\u09be": 3434, "\u09ad\u09be\u0987\u09f0\u09be\u099b": 3435, "\u09ad\u09be\u0993": 3436, "\u09ad\u09be\u0993\u09a8\u09be": 3437, "\u09ad\u09be\u0997": 3438, "\u09ad\u09be\u0997\u09a4": 3439, "\u09ad\u09be\u0997\u09f0": 3440, "\u09ad\u09be\u0997\u09f1\u09a4": 3441, "\u09ad\u09be\u0999\u09bf": 3442, "\u09ad\u09be\u09a4": 3443, "\u09ad\u09be\u09a4\u09c3": 3444, "\u09ad\u09be\u09ac": 3445, "\u09ad\u09be\u09ac\u09bf": 3446, "\u09ad\u09be\u09ac\u09bf\u099b\u09cb": 3447, "\u09ad\u09be\u09ac\u09c7": 3448, "\u09ad\u09be\u09ac\u09cb": 3449, "\u09ad\u09be\u09b2": 3450, "\u09ad\u09be\u09b2\u0964": 3451, "\u09ad\u09be\u09b2\u0995\u09c7": 3452, "\u09ad\u09be\u09b2\u0995\u09c8": 3453, "\u09ad\u09be\u09b2\u09a6\u09f0\u09c7": 3454, "\u09ad\u09be\u09b2\u09c7": 3455, "\u09ad\u09be\u09b2\u09c7\u0987": 3456, "\u09ad\u09be\u09b7": 3457, "\u09ad\u09be\u09b7\u09be": 3458, "\u09ad\u09be\u09b7\u09be\u0964": 3459, "\u09ad\u09be\u09b7\u09be\u09a4": 3460, "\u09ad\u09be\u09b7\u09be\u09b2\u09c8": 3461, "\u09ad\u09be\u09b7\u09be\u09f0": 3462, "\u09ad\u09be\u09b8\u09cd\u0995\u09f0": 3463, "\u09ad\u09be\u09b8\u09cd\u0995\u09f0\u09cd\u09af": 3464, "\u09ad\u09be\u09f0": 3465, "\u09ad\u09be\u09f0\u09a4": 3466, "\u09ad\u09be\u09f0\u09a4\u09a4": 3467, "\u09ad\u09be\u09f0\u09a4\u09ac\u09f0\u09cd\u09b7\u09f0": 3468, "\u09ad\u09be\u09f0\u09a4\u09b2\u09c8": 3469, "\u09ad\u09be\u09f0\u09a4\u09c0\u09af\u09bc": 3470, "\u09ad\u09be\u09f0\u09a4\u09c0\u09df": 3471, "\u09ad\u09be\u09f0\u09a4\u09f0": 3472, "\u09ad\u09be\u09f0\u09cd": 3473, "\u09ad\u09be\u09f1": 3474, "\u09ad\u09be\u09f1\u09bf\u0995": 3475, "\u09ad\u09be\u09f1\u09c7": 3476, "\u09ad\u09bf": 3477, "\u09ad\u09bf\u09a1\u09bf\u0985": 3478, "\u09ad\u09bf\u09a4": 3479, "\u09ad\u09bf\u09a4\u09cd": 3480, "\u09ad\u09bf\u09a4\u09cd\u09a4\u09bf": 3481, "\u09ad\u09bf\u09a4\u09cd\u09a4\u09bf\u0995": 3482, "\u09ad\u09bf\u09a4\u09cd\u09a4\u09bf\u09a4": 3483, "\u09ad\u09bf\u09a4\u09f0": 3484, "\u09ad\u09bf\u09a4\u09f0\u09a4": 3485, "\u09ad\u09bf\u09a4\u09f0\u09a4\u09c7": 3486, "\u09ad\u09bf\u09a4\u09f0\u09f0": 3487, "\u09ad\u09bf\u09a8": 3488, "\u09ad\u09bf\u09a8\u09cd\u09a8": 3489, "\u09ad\u09c0": 3490, "\u09ad\u09c1": 3491, "\u09ad\u09c1\u0995\u09cd\u09a4": 3492, "\u09ad\u09c1\u09b2": 3493, "\u09ad\u09c2": 3494, "\u09ad\u09c2\u09a4": 3495, "\u09ad\u09c2\u09aa\u09c7\u09a8": 3496, "\u09ad\u09c2\u09ae\u09bf": 3497, "\u09ad\u09c2\u09ae\u09bf\u0995\u09be": 3498, "\u09ad\u09c2\u09ae\u09bf\u0995\u09be\u09a4": 3499, "\u09ad\u09c2\u09ae\u09bf\u09f0": 3500, "\u09ad\u09c7": 3501, "\u09ad\u09c7\u0981": 3502, "\u09ad\u09c7\u099f\u09bf": 3503, "\u09ad\u09c7\u09a6": 3504, "\u09ad\u09c7\u09a6\u09c7": 3505, "\u09ad\u09c7\u09a8": 3506, "\u09ad\u09cb": 3507, "\u09ad\u09cb\u0997": 3508, "\u09ad\u09cb\u099c": 3509, "\u09ad\u09cb\u099f": 3510, "\u09ad\u09cc": 3511, "\u09ad\u09cd\u09af": 3512, "\u09ad\u09cd\u09f0": 3513, "\u09ad\u09cd\u09f0\u09ae\u09a3": 3514, "\u09ad\u09cd\u09f0\u09ae\u09a3\u09f0": 3515, "\u09ad\u09cd\u09f0\u09be": 3516, "\u09ad\u09cd\u09f0\u09be\u09ae\u09cd\u09af": 3517, "\u09ad\u09df": 3518, "\u09ad\u09f0": 3519, "\u09ad\u09f0\u09be": 3520, "\u09ad\u09f0\u09be\u0987": 3521, "\u09ad\u09f0\u09bf": 3522, "\u09ad\u09f0\u09cd\u09a4\u09bf": 3523, "\u09ad\u09f1": 3524, "\u09ad\u09f1\u09a8": 3525, "\u09ad\u09f1\u09bf": 3526, "\u09ad\u09f1\u09bf\u09b7\u09cd\u09af": 3527, "\u09ae\u0964": 3528, "\u09ae\u0987": 3529, "\u09ae\u0987\u0993": 3530, "\u09ae\u0987\u09a4\u09cb": 3531, "\u09ae\u0995": 3532, "\u09ae\u0999": 3533, "\u09ae\u0999\u09cd": 3534, "\u09ae\u099b": 3535, "\u09ae\u099c\u09bf": 3536, "\u09ae\u099e\u09cd\u099a": 3537, "\u09ae\u099e\u09cd\u099a\u09a4": 3538, "\u09ae\u09a0": 3539, "\u09ae\u09a3": 3540, "\u09ae\u09a3\u09bf": 3541, "\u09ae\u09a3\u09c7": 3542, "\u09ae\u09a3\u09cd\u09a1": 3543, "\u09ae\u09a3\u09f0": 3544, "\u09ae\u09a4": 3545, "\u09ae\u09a4\u09be": 3546, "\u09ae\u09a4\u09bf": 3547, "\u09ae\u09a4\u09c0": 3548, "\u09ae\u09a4\u09c7": 3549, "\u09ae\u09a6": 3550, "\u09ae\u09a7\u09c1": 3551, "\u09ae\u09a7\u09cd\u09af": 3552, "\u09ae\u09a8": 3553, "\u09ae\u09a8\u09a4": 3554, "\u09ae\u09a8\u09bf": 3555, "\u09ae\u09a8\u09c7": 3556, "\u09ae\u09a8\u09cb": 3557, "\u09ae\u09a8\u09cb\u09f0": 3558, "\u09ae\u09a8\u09cd": 3559, "\u09ae\u09a8\u09cd\u09a4": 3560, "\u09ae\u09a8\u09cd\u09a4\u09ac\u09cd\u09af": 3561, "\u09ae\u09a8\u09cd\u09a4\u09cd\u09f0": 3562, "\u09ae\u09a8\u09cd\u09a4\u09cd\u09f0\u09a3": 3563, "\u09ae\u09a8\u09cd\u09a4\u09cd\u09f0\u09c0": 3564, "\u09ae\u09a8\u09cd\u09a4\u09cd\u09f0\u09c0\u09f0": 3565, "\u09ae\u09a8\u09cd\u09a6\u09bf": 3566, "\u09ae\u09a8\u09cd\u09a6\u09bf\u09f0": 3567, "\u09ae\u09a8\u09cd\u09a6\u09bf\u09f0\u099f\u09cb": 3568, "\u09ae\u09a8\u09cd\u09a6\u09bf\u09f0\u09a4": 3569, "\u09ae\u09a8\u09cd\u09a6\u09bf\u09f0\u09f0": 3570, "\u09ae\u09a8\u09f0": 3571, "\u09ae\u09aa\u09c1\u09f0": 3572, "\u09ae\u09ac\u09be\u0987\u09b2": 3573, "\u09ae\u09ae": 3574, "\u09ae\u09af\u09bc": 3575, "\u09ae\u09b2": 3576, "\u09ae\u09b2\u09be": 3577, "\u09ae\u09b9": 3578, "\u09ae\u09b9\u0995\u09c1": 3579, "\u09ae\u09b9\u0995\u09c1\u09ae\u09be": 3580, "\u09ae\u09b9\u09a8\u09cd\u09a4": 3581, "\u09ae\u09b9\u09ae\u09cd": 3582, "\u09ae\u09b9\u09ae\u09cd\u09ae\u09a6": 3583, "\u09ae\u09b9\u09b2": 3584, "\u09ae\u09b9\u09be": 3585, "\u09ae\u09b9\u09be\u0995\u09be\u09b6": 3586, "\u09ae\u09b9\u09be\u09a4\u09cd": 3587, "\u09ae\u09b9\u09be\u09a4\u09cd\u09ae\u09be": 3588, "\u09ae\u09b9\u09be\u09a6\u09c7\u09b6\u09f0": 3589, "\u09ae\u09b9\u09be\u09a8": 3590, "\u09ae\u09b9\u09be\u09a8\u0997\u09f0": 3591, "\u09ae\u09b9\u09be\u09aa\u09c1\u09f0\u09c1\u09b7": 3592, "\u09ae\u09b9\u09be\u09ac\u09bf\u09a6\u09cd\u09af\u09be\u09b2\u09af\u09bc": 3593, "\u09ae\u09b9\u09be\u09ac\u09bf\u09a6\u09cd\u09af\u09be\u09b2\u09af\u09bc\u09a4": 3594, "\u09ae\u09b9\u09be\u09ac\u09bf\u09a6\u09cd\u09af\u09be\u09b2\u09af\u09bc\u09f0": 3595, "\u09ae\u09b9\u09be\u09f0": 3596, "\u09ae\u09b9\u09be\u09f0\u09be": 3597, "\u09ae\u09b9\u09be\u09f0\u09be\u09b7\u09cd\u099f\u09cd\u09f0": 3598, "\u09ae\u09b9\u09bf\u09b2\u09be": 3599, "\u09ae\u09b9\u09bf\u09b2\u09be\u09b8\u0995\u09b2\u09f0": 3600, "\u09ae\u09b9\u09bf\u09b2\u09be\u09f0": 3601, "\u09ae\u09b9\u09c7": 3602, "\u09ae\u09b9\u09cb": 3603, "\u09ae\u09b9\u09cb\u09ce": 3604, "\u09ae\u09be": 3605, "\u09ae\u09be\u0982": 3606, "\u09ae\u09be\u0982\u09b8": 3607, "\u09ae\u09be\u0987": 3608, "\u09ae\u09be\u0987\u0995\u09c0": 3609, "\u09ae\u09be\u0987\u09b2": 3610, "\u09ae\u09be\u0989": 3611, "\u09ae\u09be\u0995": 3612, "\u09ae\u09be\u0995\u09f0": 3613, "\u09ae\u09be\u0998": 3614, "\u09ae\u09be\u099b": 3615, "\u09ae\u09be\u099c": 3616, "\u09ae\u09be\u099c\u09a4": 3617, "\u09ae\u09be\u099c\u09a4\u09c7": 3618, "\u09ae\u09be\u099c\u09a4\u09cb": 3619, "\u09ae\u09be\u099c\u09bf": 3620, "\u09ae\u09be\u099c\u09bf\u0995": 3621, "\u09ae\u09be\u099c\u09c1": 3622, "\u09ae\u09be\u099c\u09c7": 3623, "\u09ae\u09be\u099c\u09c7\u09a6\u09bf": 3624, "\u09ae\u09be\u099c\u09c7\u09f0\u09c7": 3625, "\u09ae\u09be\u099c\u09f0": 3626, "\u09ae\u09be\u099f\u09bf": 3627, "\u09ae\u09be\u099f\u09bf\u0995\u09be\u09b2\u09bf": 3628, "\u09ae\u09be\u099f\u09bf\u09a4": 3629, "\u09ae\u09be\u099f\u09bf\u09f0": 3630, "\u09ae\u09be\u09a3": 3631, "\u09ae\u09be\u09a4": 3632, "\u09ae\u09be\u09a4\u09bf": 3633, "\u09ae\u09be\u09a4\u09c3": 3634, "\u09ae\u09be\u09a4\u09c3\u09f0": 3635, "\u09ae\u09be\u09a4\u09cd\u09f0": 3636, "\u09ae\u09be\u09a4\u09cd\u09f0\u09be": 3637, "\u09ae\u09be\u09a5": 3638, "\u09ae\u09be\u09a6\u09cd\u09f0\u09be": 3639, "\u09ae\u09be\u09a7": 3640, "\u09ae\u09be\u09a7\u09cd\u09af": 3641, "\u09ae\u09be\u09a7\u09cd\u09af\u09ae": 3642, "\u09ae\u09be\u09a7\u09cd\u09af\u09ae\u09bf\u0995": 3643, "\u09ae\u09be\u09a7\u09f1": 3644, "\u09ae\u09be\u09a8": 3645, "\u09ae\u09be\u09a8\u0964": 3646, "\u09ae\u09be\u09a8\u09a4": 3647, "\u09ae\u09be\u09a8\u09b8\u09bf\u0995": 3648, "\u09ae\u09be\u09a8\u09bf": 3649, "\u09ae\u09be\u09a8\u09c1": 3650, "\u09ae\u09be\u09a8\u09c1\u09b9": 3651, "\u09ae\u09be\u09a8\u09c1\u09b9\u0995": 3652, "\u09ae\u09be\u09a8\u09c1\u09b9\u09c7": 3653, "\u09ae\u09be\u09a8\u09c1\u09b9\u09f0": 3654, "\u09ae\u09be\u09a8\u09c7": 3655, "\u09ae\u09be\u09a8\u09c7\u0964": 3656, "\u09ae\u09be\u09a8\u09cd": 3657, "\u09ae\u09be\u09a8\u09cd\u09af": 3658, "\u09ae\u09be\u09a8\u09f0": 3659, "\u09ae\u09be\u09a8\u09f1": 3660, "\u09ae\u09be\u09ae": 3661, "\u09ae\u09be\u09af\u09bc": 3662, "\u09ae\u09be\u09b2": 3663, "\u09ae\u09be\u09b2\u09be": 3664, "\u09ae\u09be\u09b2\u09bf": 3665, "\u09ae\u09be\u09b2\u09bf\u0995": 3666, "\u09ae\u09be\u09b2\u09cb": 3667, "\u09ae\u09be\u09b9": 3668, "\u09ae\u09be\u09b9\u09a4": 3669, "\u09ae\u09be\u09b9\u09c7": 3670, "\u09ae\u09be\u09b9\u09f0": 3671, "\u09ae\u09be\u09f0": 3672, "\u09ae\u09be\u09f0\u09be": 3673, "\u09ae\u09be\u09f0\u09bf": 3674, "\u09ae\u09be\u09f0\u09c7": 3675, "\u09ae\u09be\u09f0\u09cd": 3676, "\u09ae\u09be\u09f0\u09cd\u0995\u09cd\u09b8": 3677, "\u09ae\u09be\u09f0\u09cd\u099a": 3678, "\u09ae\u09bf": 3679, "\u09ae\u09bf\u0983": 3680, "\u09ae\u09bf\u0989": 3681, "\u09ae\u09bf\u0995": 3682, "\u09ae\u09bf\u099a\u09bf\u0982": 3683, "\u09ae\u09bf\u099c\u09cb": 3684, "\u09ae\u09bf\u099f\u09be\u09f0": 3685, "\u09ae\u09bf\u09a4": 3686, "\u09ae\u09bf\u09a4\u09cd\u09f0": 3687, "\u09ae\u09bf\u09a8": 3688, "\u09ae\u09bf\u09a8\u09bf": 3689, "\u09ae\u09bf\u09a8\u09bf\u099f": 3690, "\u09ae\u09bf\u09b2": 3691, "\u09ae\u09bf\u09b2\u09bf": 3692, "\u09ae\u09bf\u09b2\u09bf\u09af\u09bc\u09a8": 3693, "\u09ae\u09bf\u09b6\u09cd\u09f0": 3694, "\u09ae\u09bf\u09f0": 3695, "\u09ae\u09bf\u09f0\u09bf": 3696, "\u09ae\u09c0": 3697, "\u09ae\u09c0\u09af\u09bc\u09c7": 3698, "\u09ae\u09c0\u09f0": 3699, "\u09ae\u09c1": 3700, "\u09ae\u09c1\u0995\u09b2\u09bf": 3701, "\u09ae\u09c1\u0995\u09cd\u09a4": 3702, "\u09ae\u09c1\u0995\u09cd\u09a4\u09bf": 3703, "\u09ae\u09c1\u0996": 3704, "\u09ae\u09c1\u0996\u09a4": 3705, "\u09ae\u09c1\u0996\u09be": 3706, "\u09ae\u09c1\u0996\u09c0": 3707, "\u09ae\u09c1\u0996\u09c7": 3708, "\u09ae\u09c1\u0996\u09cd\u09af": 3709, "\u09ae\u09c1\u0996\u09cd\u09af\u09ae\u09a8\u09cd\u09a4\u09cd\u09f0\u09c0": 3710, "\u09ae\u09c1\u099b": 3711, "\u09ae\u09c1\u099b\u09b2": 3712, "\u09ae\u09c1\u099b\u09b2\u09ae\u09be\u09a8": 3713, "\u09ae\u09c1\u099b\u09b2\u09bf\u09ae": 3714, "\u09ae\u09c1\u09a0": 3715, "\u09ae\u09c1\u09a0\u09a4\u09c7": 3716, "\u09ae\u09c1\u09a6\u09cd\u09f0": 3717, "\u09ae\u09c1\u09a6\u09cd\u09f0\u09be": 3718, "\u09ae\u09c1\u09a8\u09be": 3719, "\u09ae\u09c1\u09a8\u09bf": 3720, "\u09ae\u09c1\u09ae\u09cd\u09ac\u09be\u0987": 3721, "\u09ae\u09c1\u09ae\u09cd\u09ac\u09be\u0987\u09f0": 3722, "\u09ae\u09c1\u09b2": 3723, "\u09ae\u09c1\u09f0": 3724, "\u09ae\u09c2": 3725, "\u09ae\u09c2\u09b2": 3726, "\u09ae\u09c2\u09b2\u0995": 3727, "\u09ae\u09c2\u09b2\u09a4": 3728, "\u09ae\u09c2\u09b2\u09a4\u0983": 3729, "\u09ae\u09c2\u09b2\u09cd\u09af": 3730, "\u09ae\u09c2\u09b2\u09f0": 3731, "\u09ae\u09c2\u09f0": 3732, "\u09ae\u09c2\u09f0\u09a4": 3733, "\u09ae\u09c2\u09f0\u09cd": 3734, "\u09ae\u09c2\u09f0\u09cd\u09a4\u09bf": 3735, "\u09ae\u09c2\u09f0\u09f0": 3736, "\u09ae\u09c3": 3737, "\u09ae\u09c3\u09a4": 3738, "\u09ae\u09c3\u09a4\u09cd\u09af": 3739, "\u09ae\u09c3\u09a4\u09cd\u09af\u09c1": 3740, "\u09ae\u09c3\u09a4\u09cd\u09af\u09c1\u09f0": 3741, "\u09ae\u09c7": 3742, "\u09ae\u09c7\u0987\u09a8": 3743, "\u09ae\u09c7\u0998": 3744, "\u09ae\u09c7\u099f": 3745, "\u09ae\u09c7\u099f\u09cd\u09f0": 3746, "\u09ae\u09c7\u09a1\u09bf": 3747, "\u09ae\u09c7\u09a3\u09cd\u099f": 3748, "\u09ae\u09c7\u09a8": 3749, "\u09ae\u09c7\u09a8\u09cd\u099f": 3750, "\u09ae\u09c7\u09ae": 3751, "\u09ae\u09c7\u09b2": 3752, "\u09ae\u09c7\u09b2\u09be": 3753, "\u09ae\u09c7\u09b2\u09bf": 3754, "\u09ae\u09c7\u09f0": 3755, "\u09ae\u09c7\u09f0\u09bf": 3756, "\u09ae\u09c7\u09f0\u09c1": 3757, "\u09ae\u09c7\u09f0\u09c7": 3758, "\u09ae\u09c8": 3759, "\u09ae\u09cb": 3760, "\u09ae\u09cb\u0995": 3761, "\u09ae\u09cb\u0997": 3762, "\u09ae\u09cb\u0997\u09b2": 3763, "\u09ae\u09cb\u09a6": 3764, "\u09ae\u09cb\u09b9\u09a8": 3765, "\u09ae\u09cb\u09f0": 3766, "\u09ae\u09cc": 3767, "\u09ae\u09cc\u09b2\u09bf\u0995": 3768, "\u09ae\u09cd": 3769, "\u09ae\u09cd\u09aa": 3770, "\u09ae\u09cd\u09aa\u09bf": 3771, "\u09ae\u09cd\u09ac": 3772, "\u09ae\u09cd\u09ac\u09be": 3773, "\u09ae\u09cd\u09ac\u09be\u0987": 3774, "\u09ae\u09cd\u09ac\u09c0": 3775, "\u09ae\u09cd\u09ac\u09c7": 3776, "\u09ae\u09cd\u09ac\u09f0": 3777, "\u09ae\u09cd\u09ac\u09f0\u09a4": 3778, "\u09ae\u09cd\u09ac\u09f0\u09f0": 3779, "\u09ae\u09cd\u09ad": 3780, "\u09ae\u09cd\u09ad\u09bf\u0995": 3781, "\u09ae\u09cd\u09af": 3782, "\u09ae\u09f0": 3783, "\u09ae\u09f0\u09a3": 3784, "\u09ae\u09f0\u09be": 3785, "\u09ae\u09f0\u09bf": 3786, "\u09ae\u09f0\u09c1": 3787, "\u09ae\u09f0\u09cd": 3788, "\u09ae\u09f0\u09cd\u09af\u09be": 3789, "\u09af\u099c\u09cd\u099e": 3790, "\u09af\u09a4": 3791, "\u09af\u09a5\u09c7": 3792, "\u09af\u09a5\u09c7\u09b7\u09cd\u099f": 3793, "\u09af\u09a6\u09bf": 3794, "\u09af\u09a6\u09bf\u0993": 3795, "\u09af\u09a8\u09cd\u09a4\u09cd\u09f0": 3796, "\u09af\u09bc": 3797, "\u09af\u09bc\u0964": 3798, "\u09af\u09bc\u0995": 3799, "\u09af\u09bc\u09a4": 3800, "\u09af\u09bc\u09a4\u09c7": 3801, "\u09af\u09bc\u09a8": 3802, "\u09af\u09bc\u09a8\u09f0": 3803, "\u09af\u09bc\u09be": 3804, "\u09af\u09bc\u09be\u0987": 3805, "\u09af\u09bc\u09be\u09a4": 3806, "\u09af\u09bc\u09be\u09a8": 3807, "\u09af\u09bc\u09be\u09a8\u09be": 3808, "\u09af\u09bc\u09be\u09ae": 3809, "\u09af\u09bc\u09be\u09b2": 3810, "\u09af\u09bc\u09be\u09b2\u09c7": 3811, "\u09af\u09bc\u09be\u09b2\u09c8": 3812, "\u09af\u09bc\u09be\u09b2\u09c8\u0995\u09c7": 3813, "\u09af\u09bc\u09be\u09f0": 3814, "\u09af\u09bc\u09bf\u0995": 3815, "\u09af\u09bc\u09c0": 3816, "\u09af\u09bc\u09c1": 3817, "\u09af\u09bc\u09c7": 3818, "\u09af\u09bc\u09c7\u0964": 3819, "\u09af\u09bc\u09c7\u0987": 3820, "\u09af\u09bc\u09c7\u0995": 3821, "\u09af\u09bc\u09c7\u099f": 3822, "\u09af\u09bc\u09c7\u09b2": 3823, "\u09af\u09bc\u09cb": 3824, "\u09af\u09bc\u09cb\u0997": 3825, "\u09af\u09bc\u09cb\u099c\u09a8": 3826, "\u09af\u09bc\u09f0": 3827, "\u09af\u09be": 3828, "\u09af\u09be\u0993": 3829, "\u09af\u09be\u0993\u0981": 3830, "\u09af\u09be\u0993\u0981\u09a4\u09c7": 3831, "\u09af\u09be\u0995": 3832, "\u09af\u09be\u09a4\u09c7": 3833, "\u09af\u09be\u09a4\u09cd\u09f0": 3834, "\u09af\u09be\u09a4\u09cd\u09f0\u09be": 3835, "\u09af\u09be\u09a4\u09cd\u09f0\u09c0": 3836, "\u09af\u09be\u09a6\u09c1": 3837, "\u09af\u09be\u09ac": 3838, "\u09af\u09be\u09ac\u0964": 3839, "\u09af\u09be\u09ac\u09b2\u09c8": 3840, "\u09af\u09be\u09ac\u09be": 3841, "\u09af\u09be\u09ae": 3842, "\u09af\u09be\u09af\u09bc": 3843, "\u09af\u09be\u09af\u09bc\u0964": 3844, "\u09af\u09be\u09af\u09bc\u09c0": 3845, "\u09af\u09be\u09df": 3846, "\u09af\u09be\u09df\u0964": 3847, "\u09af\u09be\u09f0": 3848, "\u09af\u09bf": 3849, "\u09af\u09bf\u0995\u09cb": 3850, "\u09af\u09bf\u0995\u09cb\u09a8\u09cb": 3851, "\u09af\u09bf\u099f\u09cb": 3852, "\u09af\u09bf\u09ae\u09be\u09a8": 3853, "\u09af\u09bf\u09af\u09bc\u09c7": 3854, "\u09af\u09bf\u09b9\u09c7\u09a4\u09c1": 3855, "\u09af\u09c1": 3856, "\u09af\u09c1\u0981": 3857, "\u09af\u09c1\u0981\u099c": 3858, "\u09af\u09c1\u0995\u09cd\u09a4": 3859, "\u09af\u09c1\u0995\u09cd\u09a4\u09bf": 3860, "\u09af\u09c1\u0997": 3861, "\u09af\u09c1\u0997\u09a4": 3862, "\u09af\u09c1\u0997\u09f0": 3863, "\u09af\u09c1\u09a6\u09cd\u09a7": 3864, "\u09af\u09c1\u09a6\u09cd\u09a7\u09a4": 3865, "\u09af\u09c1\u09a6\u09cd\u09a7\u09f0": 3866, "\u09af\u09c1\u09f1": 3867, "\u09af\u09c7": 3868, "\u09af\u09c7\u09a4\u09bf": 3869, "\u09af\u09c7\u09a4\u09bf\u09af\u09bc\u09be": 3870, "\u09af\u09c7\u09a4\u09bf\u09df\u09be": 3871, "\u09af\u09c7\u09a8": 3872, "\u09af\u09c7\u09a8\u09c7": 3873, "\u09af\u09c7\u09a8\u09c7\u0995\u09c7": 3874, "\u09af\u09cb": 3875, "\u09af\u09cb\u0997": 3876, "\u09af\u09cb\u0997\u09a6\u09be\u09a8": 3877, "\u09af\u09cb\u0997\u09be": 3878, "\u09af\u09cb\u0997\u09be\u09a8": 3879, "\u09af\u09cb\u0997\u09be\u09af\u09cb\u0997": 3880, "\u09af\u09cb\u0997\u09c0": 3881, "\u09af\u09cb\u0997\u09c7": 3882, "\u09af\u09cb\u0997\u09c7\u09a6\u09bf": 3883, "\u09af\u09cb\u0997\u09cd\u09af": 3884, "\u09af\u09cb\u09a8": 3885, "\u09af\u09cb\u09a8\u099f\u09cb": 3886, "\u09af\u09cb\u09f0": 3887, "\u09af\u09cb\u09f0\u09b9\u09be\u099f": 3888, "\u09af\u09cb\u09f0\u09b9\u09be\u099f\u09a4": 3889, "\u09af\u09cb\u09f0\u09b9\u09be\u099f\u09f0": 3890, "\u09af\u09cb\u09f1\u09be": 3891, "\u09af\u09cb\u09f1\u09be\u09f0": 3892, "\u09af\u09cc": 3893, "\u09af\u09cc\u09a8": 3894, "\u09af\u09cd\u09af": 3895, "\u09b0\u09be": 3896, "\u09b0\u09cd": 3897, "\u09b0\u09cd\u09a5": 3898, "\u09b0\u09cd\u09ae": 3899, "\u09b0\u09cd\u09af": 3900, "\u09b2\u0964": 3901, "\u09b2\u0982": 3902, "\u09b2\u0993\u0995": 3903, "\u09b2\u0995": 3904, "\u09b2\u0995\u09cd\u09b7": 3905, "\u09b2\u0995\u09cd\u09b7\u09a3": 3906, "\u09b2\u0995\u09cd\u09b7\u09cd": 3907, "\u09b2\u0995\u09cd\u09b7\u09cd\u09ae\u09c0": 3908, "\u09b2\u0995\u09cd\u09b7\u09cd\u09af": 3909, "\u09b2\u0996\u09bf": 3910, "\u09b2\u0997": 3911, "\u09b2\u0997\u09a4": 3912, "\u09b2\u0997\u09a4\u09c7": 3913, "\u09b2\u0997\u09a4\u09cb": 3914, "\u09b2\u0997\u09be": 3915, "\u09b2\u0997\u09be\u0987": 3916, "\u09b2\u0997\u09c0\u09af\u09bc\u09be": 3917, "\u09b2\u0997\u09c0\u09df\u09be": 3918, "\u09b2\u0997\u09c7": 3919, "\u09b2\u0997\u09cd\u09a8": 3920, "\u09b2\u0997\u09f0": 3921, "\u09b2\u09a3\u09cd\u09a1": 3922, "\u09b2\u09a3\u09cd\u09a1\u09a8": 3923, "\u09b2\u09a3\u09cd\u09a1\u09a8\u09f0": 3924, "\u09b2\u09a4": 3925, "\u09b2\u09a4\u09be": 3926, "\u09b2\u09a8": 3927, "\u09b2\u09ac": 3928, "\u09b2\u09ac\u09b2\u09c8": 3929, "\u09b2\u09ae": 3930, "\u09b2\u09af\u09bc": 3931, "\u09b2\u09af\u09bc\u0964": 3932, "\u09b2\u09b2\u09c7": 3933, "\u09b2\u09be": 3934, "\u09b2\u09be\u0987": 3935, "\u09b2\u09be\u0987\u09a8": 3936, "\u09b2\u09be\u0987\u09ab": 3937, "\u09b2\u09be\u0993": 3938, "\u09b2\u09be\u0996": 3939, "\u09b2\u09be\u0997": 3940, "\u09b2\u09be\u0997\u09bf": 3941, "\u09b2\u09be\u0997\u09bf\u099b\u09bf\u09b2": 3942, "\u09b2\u09be\u0997\u09bf\u099b\u09c7": 3943, "\u09b2\u09be\u0997\u09bf\u09ac": 3944, "\u09b2\u09be\u0997\u09bf\u09ac\u0964": 3945, "\u09b2\u09be\u0997\u09bf\u09b2\u09c7": 3946, "\u09b2\u09be\u0997\u09c7": 3947, "\u09b2\u09be\u0997\u09c7\u0964": 3948, "\u09b2\u09be\u09a4": 3949, "\u09b2\u09be\u09ad": 3950, "\u09b2\u09be\u09b2": 3951, "\u09b2\u09be\u09b9\u09c7": 3952, "\u09b2\u09be\u09f0": 3953, "\u09b2\u09bf": 3954, "\u09b2\u09bf\u0982": 3955, "\u09b2\u09bf\u0982\u0997": 3956, "\u09b2\u09bf\u0995": 3957, "\u09b2\u09bf\u0996": 3958, "\u09b2\u09bf\u0996\u09be": 3959, "\u09b2\u09bf\u0996\u09bf": 3960, "\u09b2\u09bf\u0996\u09bf\u099b\u09bf\u09b2": 3961, "\u09b2\u09bf\u0996\u09bf\u099b\u09bf\u09b2\u0964": 3962, "\u09b2\u09bf\u0996\u09bf\u09a4": 3963, "\u09b2\u09bf\u0996\u09bf\u09ac\u09b2\u09c8": 3964, "\u09b2\u09bf\u099b": 3965, "\u09b2\u09bf\u09a4": 3966, "\u09b2\u09bf\u09a8": 3967, "\u09b2\u09bf\u09aa\u09bf": 3968, "\u09b2\u09bf\u09ae": 3969, "\u09b2\u09bf\u09af\u09bc\u09be": 3970, "\u09b2\u09bf\u09f0": 3971, "\u09b2\u09c0": 3972, "\u09b2\u09c0\u09a4": 3973, "\u09b2\u09c0\u09af\u09bc\u09be": 3974, "\u09b2\u09c0\u09b2\u09be": 3975, "\u09b2\u09c0\u09f0": 3976, "\u09b2\u09c1": 3977, "\u09b2\u09c1\u09f1\u09be": 3978, "\u09b2\u09c7": 3979, "\u09b2\u09c7\u0964": 3980, "\u09b2\u09c7\u0982": 3981, "\u09b2\u09c7\u0996": 3982, "\u09b2\u09c7\u0996\u0995": 3983, "\u09b2\u09c7\u0996\u09be": 3984, "\u09b2\u09c7\u0996\u09bf": 3985, "\u09b2\u09c7\u09a3\u09cd\u09a1": 3986, "\u09b2\u09c7\u09a3\u09cd\u09a1\u09f0": 3987, "\u09b2\u09c8": 3988, "\u09b2\u09c8\u0995\u09c7": 3989, "\u09b2\u09c8\u099b\u09bf\u09b2": 3990, "\u09b2\u09c8\u099b\u09bf\u09b2\u0964": 3991, "\u09b2\u09c8\u099b\u09c7": 3992, "\u09b2\u09cb": 3993, "\u09b2\u09cb\u0995": 3994, "\u09b2\u09cb\u0995\u0995": 3995, "\u09b2\u09cb\u0995\u09ac\u09bf\u09b6\u09cd\u09ac\u09be\u09b8": 3996, "\u09b2\u09cb\u0995\u09b8\u0995\u09b2\u09c7": 3997, "\u09b2\u09cb\u0995\u09b8\u0995\u09b2\u09f0": 3998, "\u09b2\u09cb\u0995\u09b8\u09ad\u09be": 3999, "\u09b2\u09cb\u0995\u09c7": 4000, "\u09b2\u09cb\u0995\u09c7\u09b2": 4001, "\u09b2\u09cb\u0995\u09f0": 4002, "\u09b2\u09cb\u09a8": 4003, "\u09b2\u09cb\u09f1\u09be": 4004, "\u09b2\u09cb\u09f1\u09be\u09f0": 4005, "\u09b2\u09cd": 4006, "\u09b2\u09cd\u09a1": 4007, "\u09b2\u09cd\u09aa": 4008, "\u09b2\u09cd\u09aa\u09f0": 4009, "\u09b2\u09cd\u09b2": 4010, "\u09b2\u09cd\u09b2\u09be": 4011, "\u09b2\u09cd\u09b2\u09bf": 4012, "\u09b2\u09df": 4013, "\u09b2\u09f0": 4014, "\u09b2\u09f0\u09be": 4015, "\u09b6\u0982": 4016, "\u09b6\u0982\u0995\u09f0": 4017, "\u09b6\u0987": 4018, "\u09b6\u0987\u0995\u09c0\u09af\u09bc\u09be": 4019, "\u09b6\u0995\u09cd\u09a4\u09bf": 4020, "\u09b6\u0995\u09cd\u09a4\u09bf\u09b6\u09be\u09b2\u09c0": 4021, "\u09b6\u0995\u09cd\u09a4\u09bf\u09f0": 4022, "\u09b6\u0999\u09cd": 4023, "\u09b6\u0999\u09cd\u0995\u09f0": 4024, "\u09b6\u09a4": 4025, "\u09b6\u09a4\u09be": 4026, "\u09b6\u09a4\u09be\u0982\u09b6": 4027, "\u09b6\u09a4\u09be\u09ac\u09cd\u09a6": 4028, "\u09b6\u09a4\u09bf": 4029, "\u09b6\u09a4\u09bf\u0995\u09be": 4030, "\u09b6\u09a4\u09bf\u0995\u09be\u09a4": 4031, "\u09b6\u09a4\u09bf\u0995\u09be\u09f0": 4032, "\u09b6\u09a4\u09cd\u09f0": 4033, "\u09b6\u09ac\u09cd": 4034, "\u09b6\u09ac\u09cd\u09a6": 4035, "\u09b6\u09ac\u09cd\u09a6\u099f\u09cb": 4036, "\u09b6\u09ac\u09cd\u09a6\u09f0": 4037, "\u09b6\u09af\u09bc": 4038, "\u09b6\u09be": 4039, "\u09b6\u09be\u0995": 4040, "\u09b6\u09be\u0996\u09be": 4041, "\u09b6\u09be\u0996\u09be\u09a4": 4042, "\u09b6\u09be\u0996\u09be\u09f0": 4043, "\u09b6\u09be\u09a8\u09cd": 4044, "\u09b6\u09be\u09a8\u09cd\u09a4": 4045, "\u09b6\u09be\u09a8\u09cd\u09a4\u09bf": 4046, "\u09b6\u09be\u09b2": 4047, "\u09b6\u09be\u09b2\u09c0": 4048, "\u09b6\u09be\u09b8": 4049, "\u09b6\u09be\u09b8\u0995": 4050, "\u09b6\u09be\u09b8\u09a8": 4051, "\u09b6\u09be\u09b8\u09a8\u09f0": 4052, "\u09b6\u09be\u09b8\u09bf\u09a4": 4053, "\u09b6\u09be\u09b8\u09cd\u09a4\u09bf": 4054, "\u09b6\u09be\u09b8\u09cd\u09a4\u09cd\u09f0": 4055, "\u09b6\u09be\u09f0": 4056, "\u09b6\u09be\u09f0\u09c0": 4057, "\u09b6\u09be\u09f0\u09c0\u09f0": 4058, "\u09b6\u09be\u09f0\u09c0\u09f0\u09bf\u0995": 4059, "\u09b6\u09bf": 4060, "\u09b6\u09bf\u0995": 4061, "\u09b6\u09bf\u0995\u09be": 4062, "\u09b6\u09bf\u0995\u09bf": 4063, "\u09b6\u09bf\u0995\u09cd\u09b7": 4064, "\u09b6\u09bf\u0995\u09cd\u09b7\u0995": 4065, "\u09b6\u09bf\u0995\u09cd\u09b7\u09be": 4066, "\u09b6\u09bf\u0995\u09cd\u09b7\u09be\u09a8\u09c1": 4067, "\u09b6\u09bf\u0995\u09cd\u09b7\u09be\u09f0": 4068, "\u09b6\u09bf\u0996": 4069, "\u09b6\u09bf\u09a4": 4070, "\u09b6\u09bf\u09b2": 4071, "\u09b6\u09bf\u09b2\u09be": 4072, "\u09b6\u09bf\u09b2\u09cd": 4073, "\u09b6\u09bf\u09b2\u09cd\u09aa": 4074, "\u09b6\u09bf\u09b2\u09cd\u09aa\u09c0": 4075, "\u09b6\u09bf\u09b2\u09cd\u09aa\u09c0\u09f0": 4076, "\u09b6\u09bf\u09b2\u09cd\u09aa\u09f0": 4077, "\u09b6\u09bf\u09b6\u09c1": 4078, "\u09b6\u09bf\u09b6\u09c1\u09f0": 4079, "\u09b6\u09bf\u09b7\u09cd\u099f": 4080, "\u09b6\u09bf\u09b7\u09cd\u09af": 4081, "\u09b6\u09bf\u09f1": 4082, "\u09b6\u09bf\u09f1\u09b8\u09be\u0997\u09f0": 4083, "\u09b6\u09bf\u09f1\u09f0": 4084, "\u09b6\u09c0": 4085, "\u09b6\u09c0\u09a4": 4086, "\u09b6\u09c0\u09b2": 4087, "\u09b6\u09c0\u09f0\u09cd\u09b7": 4088, "\u09b6\u09c1": 4089, "\u09b6\u09c1\u0995\u09be\u09a8": 4090, "\u09b6\u09c1\u0995\u09cd\u09f0": 4091, "\u09b6\u09c1\u09a6\u09cd\u09a7": 4092, "\u09b6\u09c1\u09a8\u09be": 4093, "\u09b6\u09c1\u09a8\u09bf": 4094, "\u09b6\u09c1\u09ad": 4095, "\u09b6\u09c2": 4096, "\u09b6\u09c2\u09a3\u09cd\u09af": 4097, "\u09b6\u09c2\u09a8\u09cd\u09af": 4098, "\u09b6\u09c3": 4099, "\u09b6\u09c3\u0982": 4100, "\u09b6\u09c7": 4101, "\u09b6\u09c7\u09b7": 4102, "\u09b6\u09c7\u09b7\u09a4": 4103, "\u09b6\u09c7\u09b7\u09f0": 4104, "\u09b6\u09c7\u09b9\u09a4": 4105, "\u09b6\u09c8": 4106, "\u09b6\u09c8\u09b2\u09c0": 4107, "\u09b6\u09c8\u09b2\u09c0\u09f0": 4108, "\u09b6\u09c8\u09b6": 4109, "\u09b6\u09cb": 4110, "\u09b6\u09cb\u09f0": 4111, "\u09b6\u09cd": 4112, "\u09b6\u09cd\u099a": 4113, "\u09b6\u09cd\u099a\u09bf": 4114, "\u09b6\u09cd\u09ac": 4115, "\u09b6\u09cd\u09ac\u09a8": 4116, "\u09b6\u09cd\u09ac\u09bf": 4117, "\u09b6\u09cd\u09ac\u09bf\u09b2": 4118, "\u09b6\u09cd\u09ac\u09bf\u09b2\u0982": 4119, "\u09b6\u09cd\u09ac\u09c7": 4120, "\u09b6\u09cd\u09ac\u09f0": 4121, "\u09b6\u09cd\u09ac\u09f0\u09c0": 4122, "\u09b6\u09cd\u09af": 4123, "\u09b6\u09cd\u09af\u09a8": 4124, "\u09b6\u09cd\u09b0": 4125, "\u09b6\u09cd\u09f0": 4126, "\u09b6\u09cd\u09f0\u09ae\u09bf\u0995": 4127, "\u09b6\u09cd\u09f0\u09c0": 4128, "\u09b6\u09cd\u09f0\u09c7": 4129, "\u09b6\u09cd\u09f0\u09c7\u09a3\u09c0": 4130, "\u09b6\u09cd\u09f0\u09c7\u09a3\u09c0\u09a4": 4131, "\u09b6\u09cd\u09f0\u09c7\u09a3\u09c0\u09f0": 4132, "\u09b6\u09cd\u09f0\u09c7\u09b7\u09cd\u09a0": 4133, "\u09b6\u09f0": 4134, "\u09b6\u09f0\u09a3": 4135, "\u09b6\u09f0\u09be\u0987": 4136, "\u09b6\u09f0\u09c0\u09f0": 4137, "\u09b6\u09f0\u09c0\u09f0\u09f0": 4138, "\u09b6\u09f0\u09cd": 4139, "\u09b6\u09f0\u09cd\u09ae\u09be": 4140, "\u09b6\u09f0\u09cd\u09ae\u09be\u0987": 4141, "\u09b6\u09f0\u09cd\u09ae\u09be\u09f0": 4142, "\u09b7\u0995": 4143, "\u09b7\u09a3": 4144, "\u09b7\u09a3\u09be": 4145, "\u09b7\u09a3\u09f0": 4146, "\u09b7\u09b7\u09cd\u09a0": 4147, "\u09b7\u09b7\u09cd\u09a0\u09bf": 4148, "\u09b7\u09be": 4149, "\u09b7\u09be\u09a0\u09bf": 4150, "\u09b7\u09be\u09f0": 4151, "\u09b7\u09bf": 4152, "\u09b7\u09bf\u0995": 4153, "\u09b7\u09bf\u09a4": 4154, "\u09b7\u09c7": 4155, "\u09b7\u09c7\u09a7": 4156, "\u09b7\u09cb": 4157, "\u09b7\u09cb\u09b2\u09cd\u09b2": 4158, "\u09b7\u09cb\u09b2\u09cd\u09b2\u09b6": 4159, "\u09b7\u09cd": 4160, "\u09b7\u09cd\u0995\u09be\u09f0": 4161, "\u09b7\u09cd\u099f": 4162, "\u09b7\u09cd\u099f\u09be": 4163, "\u09b7\u09cd\u099f\u09be\u0987": 4164, "\u09b7\u09cd\u099f\u09be\u09f0": 4165, "\u09b7\u09cd\u099f\u09bf": 4166, "\u09b7\u09cd\u099f\u09bf\u09a4": 4167, "\u09b7\u09cd\u099f\u09c1": 4168, "\u09b7\u09cd\u099f\u09c1\u09a1\u09bf\u0985": 4169, "\u09b7\u09cd\u099f\u09c7": 4170, "\u09b7\u09cd\u099f\u09c7\u099a\u09a8": 4171, "\u09b7\u09cd\u099f\u09cd\u09f0": 4172, "\u09b7\u09cd\u099f\u09f0": 4173, "\u09b7\u09cd\u09a0": 4174, "\u09b7\u09cd\u09a0\u09be\u09a8": 4175, "\u09b7\u09cd\u09a0\u09be\u09a8\u09bf\u0995": 4176, "\u09b7\u09cd\u09a3": 4177, "\u09b7\u09cd\u09ae": 4178, "\u09b7\u09cd\u09af": 4179, "\u09b8\u0981": 4180, "\u09b8\u0981\u099a\u09be": 4181, "\u09b8\u0981\u099c\u09c1\u09b2\u09bf": 4182, "\u09b8\u0981\u09b9\u09be\u09f0\u09bf": 4183, "\u09b8\u0982": 4184, "\u09b8\u0982\u0995\u09b2": 4185, "\u09b8\u0982\u0995\u09b2\u09a8": 4186, "\u09b8\u0982\u0995\u09cd\u09f0": 4187, "\u09b8\u0982\u0996\u09cd\u09af": 4188, "\u09b8\u0982\u0996\u09cd\u09af\u0995": 4189, "\u09b8\u0982\u0996\u09cd\u09af\u09be": 4190, "\u09b8\u0982\u0996\u09cd\u09af\u09be\u09f0": 4191, "\u09b8\u0982\u0997": 4192, "\u09b8\u0982\u0997\u09a0\u09a8": 4193, "\u09b8\u0982\u0997\u09a4\u09bf": 4194, "\u09b8\u0982\u0997\u09c0\u09a4": 4195, "\u09b8\u0982\u0997\u09c0\u09a4\u09f0": 4196, "\u09b8\u0982\u0997\u09cd\u09f0\u09b9": 4197, "\u09b8\u0982\u0997\u09cd\u09f0\u09be": 4198, "\u09b8\u0982\u0998": 4199, "\u09b8\u0982\u0998\u099f\u09bf\u09a4": 4200, "\u09b8\u0982\u0998\u09f0": 4201, "\u09b8\u0982\u099c\u09cd\u099e\u09be": 4202, "\u09b8\u0982\u09ac\u09be\u09a6": 4203, "\u09b8\u0982\u09ac\u09bf\u09a7\u09be\u09a8": 4204, "\u09b8\u0982\u09af\u09c1\u0995\u09cd\u09a4": 4205, "\u09b8\u0982\u09af\u09cb\u0997": 4206, "\u09b8\u0982\u09b2\u0997\u09cd\u09a8": 4207, "\u09b8\u0982\u09b8\u09a6": 4208, "\u09b8\u0982\u09b8\u09cd": 4209, "\u09b8\u0982\u09b8\u09cd\u0995\u09be\u09f0": 4210, "\u09b8\u0982\u09b8\u09cd\u0995\u09c3\u09a4": 4211, "\u09b8\u0982\u09b8\u09cd\u0995\u09c3\u09a4\u09bf": 4212, "\u09b8\u0982\u09b8\u09cd\u0995\u09c3\u09a4\u09bf\u09f0": 4213, "\u09b8\u0982\u09b8\u09cd\u0995\u09f0\u09a3": 4214, "\u09b8\u0982\u09b8\u09cd\u09a5\u09be": 4215, "\u09b8\u0982\u09b8\u09cd\u09a5\u09be\u09f0": 4216, "\u09b8\u0982\u09b9": 4217, "\u09b8\u0982\u09f0\u0995\u09cd\u09b7": 4218, "\u09b8\u0982\u09f0\u0995\u09cd\u09b7\u09bf\u09a4": 4219, "\u09b8\u0995": 4220, "\u09b8\u0995\u09b2": 4221, "\u09b8\u0995\u09b2\u0995": 4222, "\u09b8\u0995\u09b2\u09c7": 4223, "\u09b8\u0995\u09b2\u09c7\u0993": 4224, "\u09b8\u0995\u09b2\u09cb": 4225, "\u09b8\u0995\u09b2\u09cb\u0995\u09c7": 4226, "\u09b8\u0995\u09b2\u09cb\u09a4\u0995\u09c8": 4227, "\u09b8\u0995\u09b2\u09cb\u09ac\u09cb\u09f0": 4228, "\u09b8\u0995\u09b2\u09cb\u09f0\u09c7": 4229, "\u09b8\u0995\u09b2\u09cb\u09f1\u09c7": 4230, "\u09b8\u0995\u09b2\u09f0": 4231, "\u09b8\u0995\u09cd\u09b7\u09ae": 4232, "\u09b8\u0995\u09cd\u09f0": 4233, "\u09b8\u0995\u09cd\u09f0\u09bf\u09af\u09bc": 4234, "\u09b8\u0998": 4235, "\u09b8\u0999\u09cd": 4236, "\u09b8\u0999\u09cd\u0997\u09c0\u09a4": 4237, "\u09b8\u099c\u09be": 4238, "\u09b8\u099c\u09be\u0987": 4239, "\u09b8\u099c\u09cd": 4240, "\u09b8\u099e\u09cd\u099a": 4241, "\u09b8\u099e\u09cd\u099a\u09be\u09b2": 4242, "\u09b8\u09a0\u09bf\u0995": 4243, "\u09b8\u09a4": 4244, "\u09b8\u09a4\u09cd": 4245, "\u09b8\u09a4\u09cd\u09a4\u09f0": 4246, "\u09b8\u09a4\u09cd\u09af": 4247, "\u09b8\u09a4\u09cd\u09f0": 4248, "\u09b8\u09a4\u09cd\u09f0\u09f0": 4249, "\u09b8\u09a6": 4250, "\u09b8\u09a6\u09b8\u09cd\u09af": 4251, "\u09b8\u09a6\u09be\u09af\u09bc": 4252, "\u09b8\u09a6\u09be\u09df": 4253, "\u09b8\u09a6\u09f0": 4254, "\u09b8\u09a8\u09cd": 4255, "\u09b8\u09a8\u09cd\u09a4": 4256, "\u09b8\u09a8\u09cd\u09a4\u09be\u09a8": 4257, "\u09b8\u09a8\u09cd\u09a4\u09be\u09a8\u09f0": 4258, "\u09b8\u09a8\u09cd\u09a4\u09c1": 4259, "\u09b8\u09a8\u09cd\u09a4\u09c1\u09b7\u09cd\u099f": 4260, "\u09b8\u09a8\u09cd\u09a6\u09bf": 4261, "\u09b8\u09a8\u09cd\u09a7": 4262, "\u09b8\u09a8\u09cd\u09a7\u09be\u09a8": 4263, "\u09b8\u09a8\u09cd\u09a7\u09bf": 4264, "\u09b8\u09a8\u09cd\u09a8\u09bf": 4265, "\u09b8\u09a8\u09cd\u09ae": 4266, "\u09b8\u09a8\u09cd\u09ae\u09be\u09a8": 4267, "\u09b8\u09a8\u09cd\u09ae\u09be\u09a8\u09bf\u09a4": 4268, "\u09b8\u09a8\u09cd\u09ae\u09bf\u09b2": 4269, "\u09b8\u09a8\u09cd\u09ae\u09c1\u0996": 4270, "\u09b8\u09a8\u09cd\u09ae\u09c1\u0996\u09a4": 4271, "\u09b8\u09a8\u09cd\u09ae\u09c1\u0996\u09c0\u09a8": 4272, "\u09b8\u09aa\u09cd": 4273, "\u09b8\u09aa\u09cd\u09a4\u09ae": 4274, "\u09b8\u09aa\u09cd\u09a4\u09be": 4275, "\u09b8\u09aa\u09cd\u09a4\u09be\u09b9": 4276, "\u09b8\u09ab\u09b2": 4277, "\u09b8\u09ab\u09b2\u09a4\u09be": 4278, "\u09b8\u09ac": 4279, "\u09b8\u09ac\u09be": 4280, "\u09b8\u09ac\u09be\u09a4\u09cb": 4281, "\u09b8\u09ac\u09be\u09a4\u09cb\u0995\u09c8": 4282, "\u09b8\u09ad\u09be": 4283, "\u09b8\u09ad\u09be\u09a4": 4284, "\u09b8\u09ad\u09be\u09aa\u09a4\u09bf": 4285, "\u09b8\u09ad\u09be\u09f0": 4286, "\u09b8\u09ad\u09cd\u09af": 4287, "\u09b8\u09ae": 4288, "\u09b8\u09ae\u0997\u09cd\u09f0": 4289, "\u09b8\u09ae\u09a8\u09cd": 4290, "\u09b8\u09ae\u09af\u09bc": 4291, "\u09b8\u09ae\u09af\u09bc\u099b\u09cb\u09f1\u09be\u09a4": 4292, "\u09b8\u09ae\u09af\u09bc\u09a4": 4293, "\u09b8\u09ae\u09af\u09bc\u09a4\u09c7": 4294, "\u09b8\u09ae\u09af\u09bc\u09f0": 4295, "\u09b8\u09ae\u09b7\u09cd\u099f\u09bf": 4296, "\u09b8\u09ae\u09b7\u09cd\u099f\u09bf\u09f0": 4297, "\u09b8\u09ae\u09b8\u09cd\u09a4": 4298, "\u09b8\u09ae\u09b8\u09cd\u09af": 4299, "\u09b8\u09ae\u09b8\u09cd\u09af\u09be": 4300, "\u09b8\u09ae\u09b8\u09cd\u09af\u09be\u09f0": 4301, "\u09b8\u09ae\u09be": 4302, "\u09b8\u09ae\u09be\u099c": 4303, "\u09b8\u09ae\u09be\u099c\u09a4": 4304, "\u09b8\u09ae\u09be\u099c\u09f0": 4305, "\u09b8\u09ae\u09be\u09a7\u09be\u09a8": 4306, "\u09b8\u09ae\u09be\u09a8": 4307, "\u09b8\u09ae\u09be\u09aa\u09cd\u09a4": 4308, "\u09b8\u09ae\u09be\u09b2\u09cb": 4309, "\u09b8\u09ae\u09be\u09b2\u09cb\u099a": 4310, "\u09b8\u09ae\u09be\u09b2\u09cb\u099a\u0995": 4311, "\u09b8\u09ae\u09be\u09b2\u09cb\u099a\u09a8\u09be": 4312, "\u09b8\u09ae\u09bf": 4313, "\u09b8\u09ae\u09bf\u09a4\u09bf": 4314, "\u09b8\u09ae\u09bf\u09a4\u09bf\u09f0": 4315, "\u09b8\u09ae\u09c0": 4316, "\u09b8\u09ae\u09c1": 4317, "\u09b8\u09ae\u09c1\u09a6\u09cd\u09f0": 4318, "\u09b8\u09ae\u09c2": 4319, "\u09b8\u09ae\u09c2\u09b9": 4320, "\u09b8\u09ae\u09c2\u09b9\u0995": 4321, "\u09b8\u09ae\u09c2\u09b9\u09a4": 4322, "\u09b8\u09ae\u09c2\u09b9\u09c7": 4323, "\u09b8\u09ae\u09c2\u09b9\u09f0": 4324, "\u09b8\u09ae\u09c3": 4325, "\u09b8\u09ae\u09cd": 4326, "\u09b8\u09ae\u09cd\u09aa\u09a4\u09cd\u09a4\u09bf": 4327, "\u09b8\u09ae\u09cd\u09aa\u09a6": 4328, "\u09b8\u09ae\u09cd\u09aa\u09a8\u09cd\u09a8": 4329, "\u09b8\u09ae\u09cd\u09aa\u09be\u09a6": 4330, "\u09b8\u09ae\u09cd\u09aa\u09be\u09a6\u0995": 4331, "\u09b8\u09ae\u09cd\u09aa\u09be\u09a6\u09a8\u09be": 4332, "\u09b8\u09ae\u09cd\u09aa\u09c2\u09f0\u09cd\u09a3": 4333, "\u09b8\u09ae\u09cd\u09aa\u09c2\u09f0\u09cd\u09a3\u09f0\u09c2\u09aa\u09c7": 4334, "\u09b8\u09ae\u09cd\u09aa\u09cd\u09f0": 4335, "\u09b8\u09ae\u09cd\u09aa\u09cd\u09f0\u09a6\u09be": 4336, "\u09b8\u09ae\u09cd\u09aa\u09cd\u09f0\u09a6\u09be\u09af\u09bc\u09f0": 4337, "\u09b8\u09ae\u09cd\u09aa\u09f0\u09cd": 4338, "\u09b8\u09ae\u09cd\u09aa\u09f0\u09cd\u0995": 4339, "\u09b8\u09ae\u09cd\u09aa\u09f0\u09cd\u0995\u09c0\u09af\u09bc": 4340, "\u09b8\u09ae\u09cd\u09aa\u09f0\u09cd\u0995\u09c7": 4341, "\u09b8\u09ae\u09cd\u09ac": 4342, "\u09b8\u09ae\u09cd\u09ac\u09a8\u09cd\u09a7": 4343, "\u09b8\u09ae\u09cd\u09ac\u09a8\u09cd\u09a7\u09c7": 4344, "\u09b8\u09ae\u09cd\u09ad\u09be\u09f1": 4345, "\u09b8\u09ae\u09cd\u09ad\u09be\u09f1\u09a8\u09be": 4346, "\u09b8\u09ae\u09cd\u09ad\u09f1": 4347, "\u09b8\u09ae\u09cd\u09f0\u09be": 4348, "\u09b8\u09ae\u09df": 4349, "\u09b8\u09ae\u09df\u09a4": 4350, "\u09b8\u09ae\u09f0\u09cd\u09a5": 4351, "\u09b8\u09ae\u09f0\u09cd\u09a5\u09a8": 4352, "\u09b8\u09b2": 4353, "\u09b8\u09b2\u09a8\u09bf": 4354, "\u09b8\u09b9": 4355, "\u09b8\u09b9\u0995\u09be\u09f0\u09c0": 4356, "\u09b8\u09b9\u099c": 4357, "\u09b8\u09b9\u099c\u09c7": 4358, "\u09b8\u09b9\u09af\u09cb\u0997": 4359, "\u09b8\u09b9\u09be": 4360, "\u09b8\u09b9\u09be\u09af\u09bc": 4361, "\u09b8\u09b9\u09be\u09af\u09bc\u09a4": 4362, "\u09b8\u09b9\u09be\u09df": 4363, "\u09b8\u09be": 4364, "\u09b8\u09be\u0981": 4365, "\u09b8\u09be\u0982": 4366, "\u09b8\u09be\u0982\u09ac\u09be": 4367, "\u09b8\u09be\u0982\u09ac\u09be\u09a6\u09bf\u0995": 4368, "\u09b8\u09be\u0982\u09b8\u09cd": 4369, "\u09b8\u09be\u0982\u09b8\u09cd\u0995\u09c3\u09a4\u09bf\u0995": 4370, "\u09b8\u09be\u0997\u09f0": 4371, "\u09b8\u09be\u0997\u09f0\u09a4": 4372, "\u09b8\u09be\u0997\u09f0\u09f0": 4373, "\u09b8\u09be\u099c": 4374, "\u09b8\u09be\u099c\u09bf": 4375, "\u09b8\u09be\u09a4": 4376, "\u09b8\u09be\u09a4\u09be": 4377, "\u09b8\u09be\u09a7": 4378, "\u09b8\u09be\u09a7\u09a8": 4379, "\u09b8\u09be\u09a7\u09be\u09f0": 4380, "\u09b8\u09be\u09a7\u09be\u09f0\u09a3": 4381, "\u09b8\u09be\u09a7\u09be\u09f0\u09a3\u09a4\u09c7": 4382, "\u09b8\u09be\u09a7\u09c1": 4383, "\u09b8\u09be\u09a8\u09cd": 4384, "\u09b8\u09be\u09aa": 4385, "\u09b8\u09be\u09aa\u09c7": 4386, "\u09b8\u09be\u09ae": 4387, "\u09b8\u09be\u09ae\u0997\u09cd\u09f0": 4388, "\u09b8\u09be\u09ae\u0997\u09cd\u09f0\u09c0": 4389, "\u09b8\u09be\u09ae\u09be\u099c\u09bf\u0995": 4390, "\u09b8\u09be\u09ae\u09cd\u09f0\u09be": 4391, "\u09b8\u09be\u09ae\u09f0": 4392, "\u09b8\u09be\u09ae\u09f0\u09bf": 4393, "\u09b8\u09be\u09ae\u09f0\u09bf\u0995": 4394, "\u09b8\u09be\u09af\u09bc": 4395, "\u09b8\u09be\u09b9": 4396, "\u09b8\u09be\u09b9\u09be": 4397, "\u09b8\u09be\u09b9\u09bf\u09a4": 4398, "\u09b8\u09be\u09b9\u09bf\u09a4\u09cd\u09af": 4399, "\u09b8\u09be\u09b9\u09bf\u09a4\u09cd\u09af\u09a4": 4400, "\u09b8\u09be\u09b9\u09bf\u09a4\u09cd\u09af\u09bf\u0995": 4401, "\u09b8\u09be\u09b9\u09bf\u09a4\u09cd\u09af\u09f0": 4402, "\u09b8\u09be\u09f0": 4403, "\u09b8\u09be\u09f0\u09c7": 4404, "\u09b8\u09bf": 4405, "\u09b8\u09bf\u0982": 4406, "\u09b8\u09bf\u0982\u09b9": 4407, "\u09b8\u09bf\u0982\u09b9\u0987": 4408, "\u09b8\u09bf\u0982\u09b9\u09be\u09b8": 4409, "\u09b8\u09bf\u0982\u09b9\u09be\u09b8\u09a8\u09a4": 4410, "\u09b8\u09bf\u0982\u09b9\u09f0": 4411, "\u09b8\u09bf\u0995": 4412, "\u09b8\u09bf\u09a6\u09cd\u09a7": 4413, "\u09b8\u09bf\u09a6\u09cd\u09a7\u09be\u09a8\u09cd\u09a4": 4414, "\u09b8\u09bf\u09ae\u09be\u09a8": 4415, "\u09b8\u09bf\u09b9\u0981": 4416, "\u09b8\u09bf\u09b9\u0981\u09a4\u0995": 4417, "\u09b8\u09bf\u09b9\u0981\u09a4\u09c7": 4418, "\u09b8\u09bf\u09b9\u0981\u09a4\u09f0": 4419, "\u09b8\u09c0": 4420, "\u09b8\u09c0\u09ae\u09be": 4421, "\u09b8\u09c0\u09ae\u09be\u09a8\u09cd": 4422, "\u09b8\u09c1": 4423, "\u09b8\u09c1\u0995\u09c0\u09af\u09bc\u09be": 4424, "\u09b8\u09c1\u0996": 4425, "\u09b8\u09c1\u09a7": 4426, "\u09b8\u09c1\u09a7\u09bf": 4427, "\u09b8\u09c1\u09a8\u09cd\u09a6\u09f0": 4428, "\u09b8\u09c1\u09ac\u09bf\u09a7\u09be": 4429, "\u09b8\u09c1\u09af\u09cb\u0997": 4430, "\u09b8\u09c1\u09b8\u09cd\u09a5": 4431, "\u09b8\u09c1\u09f0": 4432, "\u09b8\u09c1\u09f0\u0995\u09cd\u09b7\u09be": 4433, "\u09b8\u09c1\u09f0\u09be": 4434, "\u09b8\u09c1\u09f0\u09c0": 4435, "\u09b8\u09c2": 4436, "\u09b8\u09c2\u099a\u09a8\u09be": 4437, "\u09b8\u09c2\u09a4\u09cd\u09f0": 4438, "\u09b8\u09c2\u09f0\u09cd\u09af": 4439, "\u09b8\u09c3": 4440, "\u09b8\u09c3\u09b7\u09cd\u099f\u09bf": 4441, "\u09b8\u09c3\u09b7\u09cd\u099f\u09bf\u09f0": 4442, "\u09b8\u09c7": 4443, "\u09b8\u09c7\u0987": 4444, "\u09b8\u09c7\u0987\u0995\u09be\u09f0\u09a3\u09c7": 4445, "\u09b8\u09c7\u0987\u0996\u09a8": 4446, "\u09b8\u09c7\u0987\u0996\u09bf\u09a8\u09bf": 4447, "\u09b8\u09c7\u0987\u099f\u09cb": 4448, "\u09b8\u09c7\u0987\u099f\u09cb\u09f1\u09c7\u0987": 4449, "\u09b8\u09c7\u0987\u09a6\u09bf\u09a8\u09be": 4450, "\u09b8\u09c7\u0987\u09ac\u09be\u09ac\u09c7": 4451, "\u09b8\u09c7\u0987\u09ac\u09bf\u09b2\u09be\u0995": 4452, "\u09b8\u09c7\u0987\u09ac\u09cb\u09f0": 4453, "\u09b8\u09c7\u0989\u099c": 4454, "\u09b8\u09c7\u0989\u099c\u09c0\u09af\u09bc\u09be": 4455, "\u09b8\u09c7\u09a8\u09be": 4456, "\u09b8\u09c7\u09a8\u09be\u09f0": 4457, "\u09b8\u09c7\u09a8\u09c7": 4458, "\u09b8\u09c7\u09af\u09bc\u09be": 4459, "\u09b8\u09c7\u09af\u09bc\u09c7": 4460, "\u09b8\u09c7\u09af\u09bc\u09c7\u09b9\u09c7": 4461, "\u09b8\u09c7\u09df\u09be": 4462, "\u09b8\u09c7\u09df\u09c7": 4463, "\u09b8\u09c7\u09f1": 4464, "\u09b8\u09c7\u09f1\u09be": 4465, "\u09b8\u09c7\u09f1\u09be\u09f0": 4466, "\u09b8\u09c8": 4467, "\u09b8\u09c8\u09a4\u09c7": 4468, "\u09b8\u09c8\u09a8\u09cd\u09af": 4469, "\u09b8\u09cb": 4470, "\u09b8\u09cb\u0981": 4471, "\u09b8\u09cb\u09a3": 4472, "\u09b8\u09cb\u09a3\u09be\u09b2\u09c0": 4473, "\u09b8\u09cb\u09a3\u09cb\u09f1\u09be\u09b2": 4474, "\u09b8\u09cb\u09a3\u09f0": 4475, "\u09b8\u09cb\u09a4\u09f0": 4476, "\u09b8\u09cb\u09a8": 4477, "\u09b8\u09cb\u09a8\u0995\u09be\u09b2": 4478, "\u09b8\u09cb\u09a8\u0995\u09be\u09b2\u09c7": 4479, "\u09b8\u09cb\u09ae": 4480, "\u09b8\u09cb\u09ae\u09be": 4481, "\u09b8\u09cb\u09ae\u09be\u0987": 4482, "\u09b8\u09cc": 4483, "\u09b8\u09cc\u09a8\u09cd\u09a6\u09f0": 4484, "\u09b8\u09cc\u09a8\u09cd\u09a6\u09f0\u09cd\u09af": 4485, "\u09b8\u09cd": 4486, "\u09b8\u09cd\u0995": 4487, "\u09b8\u09cd\u0995\u09be\u09f0": 4488, "\u09b8\u09cd\u0995\u09c1": 4489, "\u09b8\u09cd\u0995\u09c1\u09b2": 4490, "\u09b8\u09cd\u0995\u09c1\u09b2\u09a4": 4491, "\u09b8\u09cd\u0995\u09c1\u09b2\u09f0": 4492, "\u09b8\u09cd\u0995\u09f0": 4493, "\u09b8\u09cd\u09a4": 4494, "\u09b8\u09cd\u09a4\u09ae\u09cd\u09ad": 4495, "\u09b8\u09cd\u09a4\u09be": 4496, "\u09b8\u09cd\u09a4\u09bf": 4497, "\u09b8\u09cd\u09a4\u09c1": 4498, "\u09b8\u09cd\u09a4\u09cd\u09f0": 4499, "\u09b8\u09cd\u09a4\u09f0": 4500, "\u09b8\u09cd\u09a5": 4501, "\u09b8\u09cd\u09a5\u09b2": 4502, "\u09b8\u09cd\u09a5\u09b2\u09c0": 4503, "\u09b8\u09cd\u09a5\u09be": 4504, "\u09b8\u09cd\u09a5\u09be\u09a4": 4505, "\u09b8\u09cd\u09a5\u09be\u09a8": 4506, "\u09b8\u09cd\u09a5\u09be\u09a8\u0964": 4507, "\u09b8\u09cd\u09a5\u09be\u09a8\u09a4": 4508, "\u09b8\u09cd\u09a5\u09be\u09a8\u09c0\u09af\u09bc": 4509, "\u09b8\u09cd\u09a5\u09be\u09a8\u09f0": 4510, "\u09b8\u09cd\u09a5\u09be\u09aa": 4511, "\u09b8\u09cd\u09a5\u09be\u09aa\u09a4\u09cd\u09af": 4512, "\u09b8\u09cd\u09a5\u09be\u09aa\u09a8": 4513, "\u09b8\u09cd\u09a5\u09be\u09aa\u09a8\u09f0": 4514, "\u09b8\u09cd\u09a5\u09be\u09aa\u09bf\u09a4": 4515, "\u09b8\u09cd\u09a5\u09be\u09af\u09bc\u09c0": 4516, "\u09b8\u09cd\u09a5\u09be\u09f0": 4517, "\u09b8\u09cd\u09a5\u09bf": 4518, "\u09b8\u09cd\u09a5\u09bf\u09a4": 4519, "\u09b8\u09cd\u09a5\u09bf\u09a4\u09bf": 4520, "\u09b8\u09cd\u09a5\u09bf\u09f0": 4521, "\u09b8\u09cd\u09a8\u09be\u09a4": 4522, "\u09b8\u09cd\u09a8\u09be\u09a4\u0995": 4523, "\u09b8\u09cd\u09a8\u09be\u09a4\u0995\u09cb\u09a4\u09cd\u09a4\u09f0": 4524, "\u09b8\u09cd\u09aa": 4525, "\u09b8\u09cd\u09aa\u09b7\u09cd\u099f": 4526, "\u09b8\u09cd\u09aa\u09bf": 4527, "\u09b8\u09cd\u09aa\u09c7": 4528, "\u09b8\u09cd\u09ac": 4529, "\u09b8\u09cd\u09ac\u09be": 4530, "\u09b8\u09cd\u09ac\u09be\u0995\u09cd\u09b7\u09f0": 4531, "\u09b8\u09cd\u09ac\u09be\u09a7\u09c0\u09a8": 4532, "\u09b8\u09cd\u09ac\u09be\u09a7\u09c0\u09a8\u09a4\u09be": 4533, "\u09b8\u09cd\u09ac\u09be\u09a7\u09c0\u09a8\u09a4\u09be\u09f0": 4534, "\u09b8\u09cd\u09ac\u09be\u09ad\u09be\u09f1\u09bf\u0995": 4535, "\u09b8\u09cd\u09ac\u09be\u09ae\u09c0": 4536, "\u09b8\u09cd\u09ac\u09be\u09ae\u09c0\u09f0": 4537, "\u09b8\u09cd\u09ac\u09be\u09b8\u09cd\u09a5": 4538, "\u09b8\u09cd\u09ac\u09be\u09b8\u09cd\u09a5\u09cd\u09af": 4539, "\u09b8\u09cd\u09ac\u09c0": 4540, "\u09b8\u09cd\u09ac\u09c0\u0995\u09be\u09f0": 4541, "\u09b8\u09cd\u09ac\u09c0\u0995\u09c3\u09a4\u09bf": 4542, "\u09b8\u09cd\u09ac\u09f0": 4543, "\u09b8\u09cd\u09ac\u09f0\u09c2\u09aa": 4544, "\u09b8\u09cd\u09ac\u09f0\u09c2\u09aa\u09c7": 4545, "\u09b8\u09cd\u09ac\u09f0\u09cd\u0997": 4546, "\u09b8\u09cd\u09ac\u09f0\u09cd\u0997\u09a6\u09c7\u0989": 4547, "\u09b8\u09cd\u09ae\u09c3": 4548, "\u09b8\u09cd\u09ae\u09c3\u09a4\u09bf": 4549, "\u09b8\u09cd\u09af": 4550, "\u09b8\u09cd\u09af\u09be": 4551, "\u09b8\u09cd\u09af\u09f0": 4552, "\u09b8\u09f0": 4553, "\u09b8\u09f0\u09a3": 4554, "\u09b8\u09f0\u09b2": 4555, "\u09b8\u09f0\u09b8\u09cd\u09ac": 4556, "\u09b8\u09f0\u09b8\u09cd\u09ac\u09a4\u09c0": 4557, "\u09b8\u09f0\u09c1": 4558, "\u09b8\u09f0\u09cd": 4559, "\u09b8\u09f0\u09cd\u09ac": 4560, "\u09b8\u09f0\u09cd\u09ac\u09be": 4561, "\u09b8\u09f0\u09cd\u09ac\u09be\u09a7\u09bf\u0995": 4562, "\u09b8\u09f0\u09cd\u09ac\u09cb": 4563, "\u09b8\u09f0\u09cd\u09ac\u09cb\u099a\u09cd\u099a": 4564, "\u09b8\u09f1": 4565, "\u09b8\u09f1\u09f0": 4566, "\u09b9\u0981": 4567, "\u09b9\u0993\u0981": 4568, "\u09b9\u0993\u0995": 4569, "\u09b9\u0995": 4570, "\u09b9\u09a0\u09be": 4571, "\u09b9\u09a3": 4572, "\u09b9\u09a4": 4573, "\u09b9\u09a4\u09be": 4574, "\u09b9\u09a4\u09cd\u09af\u09be": 4575, "\u09b9\u09a8": 4576, "\u09b9\u09a8\u09c7": 4577, "\u09b9\u09ac": 4578, "\u09b9\u09ac\u0964": 4579, "\u09b9\u09ac\u09b2\u09c8": 4580, "\u09b9\u09ae": 4581, "\u09b9\u09ae\u09ae": 4582, "\u09b9\u09af\u09bc": 4583, "\u09b9\u09af\u09bc\u0964": 4584, "\u09b9\u09af\u09bc\u09a4\u09cb": 4585, "\u09b9\u09b2": 4586, "\u09b9\u09b2\u0964": 4587, "\u09b9\u09b2\u09bf": 4588, "\u09b9\u09b2\u09c7": 4589, "\u09b9\u09b2\u09c7\u0993": 4590, "\u09b9\u09b8\u09cd\u09a4": 4591, "\u09b9\u09be": 4592, "\u09b9\u09be\u0981": 4593, "\u09b9\u09be\u0981\u09b9\u09bf": 4594, "\u09b9\u09be\u0987": 4595, "\u09b9\u09be\u0989": 4596, "\u09b9\u09be\u099c\u09be\u09f0": 4597, "\u09b9\u09be\u099c\u09f0\u09bf": 4598, "\u09b9\u09be\u099c\u09f0\u09bf\u0995\u09be": 4599, "\u09b9\u09be\u099c\u09f0\u09bf\u0995\u09be\u09f0": 4600, "\u09b9\u09be\u099f": 4601, "\u09b9\u09be\u09a4": 4602, "\u09b9\u09be\u09a4\u09a4": 4603, "\u09b9\u09be\u09a4\u09c0": 4604, "\u09b9\u09be\u09a4\u09c7": 4605, "\u09b9\u09be\u09a4\u09f0": 4606, "\u09b9\u09be\u09a8": 4607, "\u09b9\u09be\u09b2": 4608, "\u09b9\u09be\u09b2\u09a7": 4609, "\u09b9\u09be\u09b2\u09a7\u09c0\u09af\u09bc\u09be": 4610, "\u09b9\u09be\u09b8": 4611, "\u09b9\u09be\u09b8\u09bf\u0995": 4612, "\u09b9\u09be\u09f0": 4613, "\u09b9\u09be\u09f0\u09bf": 4614, "\u09b9\u09be\u09f0\u09cd": 4615, "\u09b9\u09bf": 4616, "\u09b9\u09bf\u0964": 4617, "\u09b9\u09bf\u0982": 4618, "\u09b9\u09bf\u0995": 4619, "\u09b9\u09bf\u099a\u09be": 4620, "\u09b9\u09bf\u099a\u09be\u09aa": 4621, "\u09b9\u09bf\u099a\u09be\u09aa\u09c7": 4622, "\u09b9\u09bf\u099a\u09be\u09aa\u09c7\u0993": 4623, "\u09b9\u09bf\u099a\u09be\u09ac\u09c7": 4624, "\u09b9\u09bf\u099b\u09be": 4625, "\u09b9\u09bf\u09a4": 4626, "\u09b9\u09bf\u09a8\u09cd\u09a6\u09c0": 4627, "\u09b9\u09bf\u09a8\u09cd\u09a6\u09c1": 4628, "\u09b9\u09bf\u09ae": 4629, "\u09b9\u09bf\u09ae\u09be": 4630, "\u09b9\u09bf\u09ae\u09be\u099a\u09b2": 4631, "\u09b9\u09c0": 4632, "\u09b9\u09c0\u09a8": 4633, "\u09b9\u09c1": 4634, "\u09b9\u09c1\u09f1\u09be": 4635, "\u09b9\u09c3": 4636, "\u09b9\u09c3\u09a4": 4637, "\u09b9\u09c3\u09a6": 4638, "\u09b9\u09c7": 4639, "\u09b9\u09c7\u0964": 4640, "\u09b9\u09c7\u0981\u09a4\u09c7": 4641, "\u09b9\u09c7\u0987": 4642, "\u09b9\u09c7\u099c\u09be\u09f0": 4643, "\u09b9\u09c7\u09a4\u09c1": 4644, "\u09b9\u09c7\u09ae": 4645, "\u09b9\u09c7\u09b2\u09cd\u09b2": 4646, "\u09b9\u09c7\u09f0": 4647, "\u09b9\u09c7\u09f0\u09bf": 4648, "\u09b9\u09c7\u09f0\u09c0": 4649, "\u09b9\u09c7\u09f0\u09c1": 4650, "\u09b9\u09c7\u09f0\u09c1\u09f1\u09be\u0987": 4651, "\u09b9\u09c8": 4652, "\u09b9\u09c8\u099b\u09bf\u09b2": 4653, "\u09b9\u09c8\u099b\u09bf\u09b2\u0964": 4654, "\u09b9\u09c8\u099b\u09bf\u09b2\u09c7": 4655, "\u09b9\u09c8\u099b\u09c7": 4656, "\u09b9\u09c8\u099b\u09c7\u0964": 4657, "\u09b9\u09cb": 4658, "\u09b9\u09cb\u099f\u09c7\u09b2": 4659, "\u09b9\u09cb\u09f1\u09be": 4660, "\u09b9\u09cb\u09f1\u09be\u09a4": 4661, "\u09b9\u09cb\u09f1\u09be\u09f0": 4662, "\u09b9\u09cd": 4663, "\u09b9\u09cd\u09ac\u09be\u09a8": 4664, "\u09b9\u09cd\u09ae": 4665, "\u09b9\u09cd\u09af": 4666, "\u09b9\u09cd\u09f0": 4667, "\u09b9\u09cd\u09f0\u09a6": 4668, "\u09b9\u09cd\u09f0\u09be": 4669, "\u09b9\u09cd\u09f0\u09be\u09b8": 4670, "\u09b9\u09df": 4671, "\u09b9\u09df\u0964": 4672, "\u09b9\u09f0": 4673, "\u09b9\u09f0\u09a3": 4674, "\u09b9\u09f0\u09bf": 4675, "\u09be\u0987": 4676, "\u09be\u09a4": 4677, "\u09be\u09a4\u09be": 4678, "\u09be\u09a4\u09cd": 4679, "\u09be\u09a4\u09cd\u09ae\u0995": 4680, "\u09be\u09a4\u09cd\u09f0": 4681, "\u09be\u09a8": 4682, "\u09be\u09a8\u09a4": 4683, "\u09be\u09a8\u09a8\u09cd\u09a6": 4684, "\u09be\u09a8\u09ac\u09cd\u09ac\u09c8": 4685, "\u09be\u09a8\u09be": 4686, "\u09be\u09a8\u09bf": 4687, "\u09be\u09a8\u09c0": 4688, "\u09be\u09a8\u09c1": 4689, "\u09be\u09a8\u09c7": 4690, "\u09be\u09a8\u09cd": 4691, "\u09be\u09a8\u09cd\u09a4": 4692, "\u09be\u09a8\u09cd\u09a4\u09bf": 4693, "\u09be\u09a8\u09cd\u09a4\u09cd\u09f0": 4694, "\u09be\u09a8\u09cd\u09a4\u09cd\u09f0\u09bf\u0995": 4695, "\u09be\u09a8\u09cd\u09a4\u09f0": 4696, "\u09be\u09a8\u09cd\u09a7": 4697, "\u09be\u09a8\u09cd\u09a8\u09ac\u09cd\u09ac\u09c8": 4698, "\u09be\u09a8\u09cd\u09af": 4699, "\u09be\u09a8\u09f0": 4700, "\u09be\u09ae": 4701, "\u09be\u09af\u09bc": 4702, "\u09be\u09b2": 4703, "\u09be\u09b2\u09af\u09bc": 4704, "\u09be\u09b2\u09af\u09bc\u09a4": 4705, "\u09be\u09b2\u09af\u09bc\u09f0": 4706, "\u09be\u09b2\u09be": 4707, "\u09be\u09b2\u09bf": 4708, "\u09be\u09b2\u09c0": 4709, "\u09be\u09b2\u09c0\u09f0": 4710, "\u09be\u09b2\u09c7": 4711, "\u09be\u09b2\u09c8": 4712, "\u09be\u09b2\u09c8\u0995\u09c7": 4713, "\u09be\u09b2\u09cb": 4714, "\u09be\u09b2\u09f0": 4715, "\u09be\u09f0": 4716, "\u09be\u09f0\u09be": 4717, "\u09be\u09f0\u09bf": 4718, "\u09be\u09f0\u09c7": 4719, "\u09be\u09f0\u09cd": 4720, "\u09be\u09f0\u09cd\u09a5": 4721, "\u09bf\u0995": 4722, "\u09bf\u0995\u09be": 4723, "\u09bf\u0995\u09be\u09f0": 4724, "\u09bf\u0995\u09cb": 4725, "\u09bf\u09a4": 4726, "\u09bf\u09a4\u0964": 4727, "\u09bf\u09a4\u09be": 4728, "\u09bf\u09a4\u09be\u09a4": 4729, "\u09bf\u09a4\u09be\u09f0": 4730, "\u09bf\u09a4\u09cd\u09ac": 4731, "\u09bf\u09a4\u09cd\u09f0": 4732, "\u09bf\u09af\u09bc": 4733, "\u09bf\u09af\u09bc\u09a8": 4734, "\u09bf\u09af\u09bc\u09be": 4735, "\u09bf\u09af\u09bc\u09be\u0987": 4736, "\u09bf\u09b2": 4737, "\u09bf\u09b2\u0964": 4738, "\u09bf\u09b2\u09be": 4739, "\u09bf\u09b2\u09be\u09f0": 4740, "\u09bf\u09b2\u09bf": 4741, "\u09bf\u09b2\u09c7": 4742, "\u09bf\u09b2\u09c7\u0964": 4743, "\u09bf\u09b2\u09c7\u0993": 4744, "\u09bf\u09b2\u09c8": 4745, "\u09bf\u09b2\u09cb": 4746, "\u09bf\u09b2\u09cb\u0981": 4747, "\u09bf\u09b2\u09cd": 4748, "\u09bf\u09b7\u09cd\u099f": 4749, "\u09c0\u0964": 4750, "\u09c0\u0995": 4751, "\u09c0\u09a4": 4752, "\u09c0\u09a8": 4753, "\u09c0\u09a8\u09a4": 4754, "\u09c0\u09af\u09bc": 4755, "\u09c0\u09af\u09bc\u09be": 4756, "\u09c0\u09af\u09bc\u09be\u0995\u09c8": 4757, "\u09c0\u09af\u09bc\u09be\u09f0": 4758, "\u09c0\u09af\u09bc\u09c7": 4759, "\u09c0\u09df": 4760, "\u09c0\u09df\u09be": 4761, "\u09c0\u09f0": 4762, "\u09c1\u0995": 4763, "\u09c1\u09a3": 4764, "\u09c1\u09a4": 4765, "\u09c1\u09a4\u09bf": 4766, "\u09c1\u09a6\u09cd\u09a7": 4767, "\u09c1\u09ce": 4768, "\u09c1\u09f0": 4769, "\u09c1\u09f1\u09be": 4770, "\u09c1\u09f1\u09be\u09f0": 4771, "\u09c2\u09aa": 4772, "\u09c2\u09aa\u09c7": 4773, "\u09c3\u09a4": 4774, "\u09c3\u09a4\u09cd\u09af": 4775, "\u09c3\u09b7\u09cd\u099f\u09bf": 4776, "\u09c7\u0964": 4777, "\u09c7\u0987": 4778, "\u09c7\u0987\u09a8": 4779, "\u09c7\u0995": 4780, "\u09c7\u09b2": 4781, "\u09c7\u09b6\u09cd\u09ac\u09f0": 4782, "\u09c7\u09b7": 4783, "\u09c7\u09b7\u09cd\u09a0": 4784, "\u09c7\u09f0": 4785, "\u09c7\u09f0\u09c7": 4786, "\u09cb\u0964": 4787, "\u09cb\u0981": 4788, "\u09cb\u0981\u0964": 4789, "\u09cb\u0997": 4790, "\u09cb\u09a8": 4791, "\u09cb\u09aa": 4792, "\u09cb\u09aa\u09f0\u09bf": 4793, "\u09cb\u09b2": 4794, "\u09cb\u09f0": 4795, "\u09cb\u09f1": 4796, "\u09cb\u09f1\u09be": 4797, "\u09cb\u09f1\u09be\u0987": 4798, "\u09cb\u09f1\u09be\u09a4": 4799, "\u09cb\u09f1\u09be\u09b2": 4800, "\u09cb\u09f1\u09be\u09f0": 4801, "\u09cb\u09f1\u09c7": 4802, "\u09cb\u09f1\u09c7\u0987": 4803, "\u09cc\u09f0": 4804, "\u09cd\u099a": 4805, "\u09cd\u09a8": 4806, "\u09cd\u09ac": 4807, "\u09cd\u09ac\u09be\u09a8": 4808, "\u09cd\u09ae": 4809, "\u09cd\u09ae\u0995": 4810, "\u09cd\u09af": 4811, "\u09cd\u09af\u09be": 4812, "\u09cd\u09af\u09be\u09f0": 4813, "\u09cd\u09af\u09c1": 4814, "\u09cd\u09af\u09cd\u09af": 4815, "\u09cd\u09af\u09f0": 4816, "\u09cd\u09b0": 4817, "\u09cd\u09df": 4818, "\u09cd\u09f0": 4819, "\u09cd\u09f0\u09be": 4820, "\u09cd\u09f0\u09bf": 4821, "\u09cd\u09f0\u09c0": 4822, "\u09cd\u09f0\u09c1": 4823, "\u09dc\u09bf": 4824, "\u09dc\u09bf\u09a4": 4825, "\u09dd\u09bf": 4826, "\u09df\u0964": 4827, "\u09df\u0995": 4828, "\u09df\u09a4": 4829, "\u09df\u09a4\u09c7": 4830, "\u09df\u09a8": 4831, "\u09df\u09be": 4832, "\u09df\u09be\u0987": 4833, "\u09df\u09be\u09a4": 4834, "\u09df\u09be\u09b2": 4835, "\u09df\u09be\u09b2\u09c8": 4836, "\u09df\u09be\u09f0": 4837, "\u09df\u09c1": 4838, "\u09df\u09c7": 4839, "\u09df\u09c7\u0964": 4840, "\u09df\u09c7\u0987": 4841, "\u09df\u09cb": 4842, "\u09df\u09f0": 4843, "\u09f0\u0982": 4844, "\u09f0\u0995\u09cd\u09a4": 4845, "\u09f0\u0995\u09cd\u09b7": 4846, "\u09f0\u0995\u09cd\u09b7\u09be": 4847, "\u09f0\u0996\u09be": 4848, "\u09f0\u0999": 4849, "\u09f0\u0999\u09be": 4850, "\u09f0\u0999\u09be\u09b2\u09c0": 4851, "\u09f0\u0999\u09f0": 4852, "\u09f0\u099a\u09a8\u09be": 4853, "\u09f0\u099a\u09bf\u09a4": 4854, "\u09f0\u099c\u09a8\u09c0": 4855, "\u09f0\u099c\u09be": 4856, "\u09f0\u099c\u09be\u0987": 4857, "\u09f0\u099c\u09be\u09f0": 4858, "\u09f0\u09a3": 4859, "\u09f0\u09a4": 4860, "\u09f0\u09aa\u09f0\u09be": 4861, "\u09f0\u09ac\u09c0": 4862, "\u09f0\u09b8": 4863, "\u09f0\u09b9": 4864, "\u09f0\u09b9\u09b8\u09cd\u09af": 4865, "\u09f0\u09be": 4866, "\u09f0\u09be\u0982": 4867, "\u09f0\u09be\u0987": 4868, "\u09f0\u09be\u0987\u099c": 4869, "\u09f0\u09be\u0987\u099c\u09c7": 4870, "\u09f0\u09be\u0987\u099c\u09f0": 4871, "\u09f0\u09be\u0993": 4872, "\u09f0\u09be\u0995": 4873, "\u09f0\u09be\u0996": 4874, "\u09f0\u09be\u0996\u09bf": 4875, "\u09f0\u09be\u0996\u09bf\u099b\u09bf\u09b2\u0964": 4876, "\u09f0\u09be\u0996\u09bf\u09ac": 4877, "\u09f0\u09be\u0996\u09bf\u09ac\u09b2\u09c8": 4878, "\u09f0\u09be\u0996\u09c7\u0964": 4879, "\u09f0\u09be\u099b\u09bf": 4880, "\u09f0\u09be\u099c": 4881, "\u09f0\u09be\u099c\u09a4\u09cd\u09ac": 4882, "\u09f0\u09be\u099c\u09a7\u09be\u09a8": 4883, "\u09f0\u09be\u099c\u09a7\u09be\u09a8\u09c0": 4884, "\u09f0\u09be\u099c\u09a8": 4885, "\u09f0\u09be\u099c\u09a8\u09c0": 4886, "\u09f0\u09be\u099c\u09a8\u09c0\u09a4\u09bf": 4887, "\u09f0\u09be\u099c\u09a8\u09c8": 4888, "\u09f0\u09be\u099c\u09a8\u09c8\u09a4\u09bf\u0995": 4889, "\u09f0\u09be\u099c\u09b8\u09cd\u09a5\u09be\u09a8": 4890, "\u09f0\u09be\u099c\u09b9\u09c1\u09f1\u09be": 4891, "\u09f0\u09be\u099c\u09cd\u09af": 4892, "\u09f0\u09be\u099c\u09cd\u09af\u09a4": 4893, "\u09f0\u09be\u099c\u09cd\u09af\u09bf\u0995": 4894, "\u09f0\u09be\u099c\u09cd\u09af\u09f0": 4895, "\u09f0\u09be\u09a3": 4896, "\u09f0\u09be\u09a3\u09c0": 4897, "\u09f0\u09be\u09a4": 4898, "\u09f0\u09be\u09a4\u09bf": 4899, "\u09f0\u09be\u09a4\u09bf\u09aa\u09c1\u09f1\u09be": 4900, "\u09f0\u09be\u09ad\u09be": 4901, "\u09f0\u09be\u09ae": 4902, "\u09f0\u09be\u09ae\u09be\u09af\u09bc": 4903, "\u09f0\u09be\u09ae\u09c7": 4904, "\u09f0\u09be\u09ae\u09f0": 4905, "\u09f0\u09be\u09af\u09bc": 4906, "\u09f0\u09be\u09b2": 4907, "\u09f0\u09be\u09b6\u09c0": 4908, "\u09f0\u09be\u09b7\u09cd\u099f\u09cd\u09f0": 4909, "\u09f0\u09be\u09b7\u09cd\u099f\u09cd\u09f0\u09aa\u09a4\u09bf": 4910, "\u09f0\u09be\u09b7\u09cd\u099f\u09cd\u09f0\u09aa\u09a4\u09bf\u09f0": 4911, "\u09f0\u09be\u09b7\u09cd\u099f\u09cd\u09f0\u09c0\u09af\u09bc": 4912, "\u09f0\u09be\u09b7\u09cd\u099f\u09cd\u09f0\u09c0\u09df": 4913, "\u09f0\u09be\u09b7\u09cd\u099f\u09cd\u09f0\u09f0": 4914, "\u09f0\u09be\u09b8\u09be\u09af\u09bc": 4915, "\u09f0\u09be\u09b8\u09be\u09af\u09bc\u09a8\u09bf\u0995": 4916, "\u09f0\u09be\u09b8\u09cd": 4917, "\u09f0\u09be\u09b8\u09cd\u09a4\u09be": 4918, "\u09f0\u09be\u09f0": 4919, "\u09f0\u09bf": 4920, "\u09f0\u09bf\u0995": 4921, "\u09f0\u09bf\u09af\u09bc\u09be": 4922, "\u09f0\u09bf\u09af\u09bc\u09be\u09f0": 4923, "\u09f0\u09c0": 4924, "\u09f0\u09c0\u09a4\u09bf": 4925, "\u09f0\u09c0\u09f0": 4926, "\u09f0\u09c1": 4927, "\u09f0\u09c1\u09a6\u09cd\u09a7": 4928, "\u09f0\u09c1\u09a6\u09cd\u09f0": 4929, "\u09f0\u09c1\u09ae": 4930, "\u09f0\u09c1\u09f1\u09be": 4931, "\u09f0\u09c2": 4932, "\u09f0\u09c2\u09aa": 4933, "\u09f0\u09c2\u09aa\u09a4": 4934, "\u09f0\u09c2\u09aa\u09be\u09a8\u09cd\u09a4\u09f0": 4935, "\u09f0\u09c2\u09aa\u09c7": 4936, "\u09f0\u09c2\u09aa\u09f0": 4937, "\u09f0\u09c7": 4938, "\u09f0\u09c7\u0995\u09f0\u09cd": 4939, "\u09f0\u09c7\u099e\u09cd\u099a": 4940, "\u09f0\u09c7\u099f": 4941, "\u09f0\u09c7\u09a1": 4942, "\u09f0\u09c7\u09b2": 4943, "\u09f0\u09c7\u09b2\u09aa\u09a5": 4944, "\u09f0\u09c7\u09b2\u09f1\u09c7": 4945, "\u09f0\u09c7\u09f0\u09c7": 4946, "\u09f0\u09c8": 4947, "\u09f0\u09cb": 4948, "\u09f0\u09cb\u0997": 4949, "\u09f0\u09cb\u0997\u09a4": 4950, "\u09f0\u09cb\u0997\u09c0": 4951, "\u09f0\u09cb\u0997\u09c0\u09f0": 4952, "\u09f0\u09cb\u0997\u09f0": 4953, "\u09f0\u09cb\u09a7": 4954, "\u09f0\u09cb\u09b9\u09bf\u09a4": 4955, "\u09f0\u09cd": 4956, "\u09f0\u09cd\u0995": 4957, "\u09f0\u09cd\u0998": 4958, "\u09f0\u09cd\u099c\u09be": 4959, "\u09f0\u09cd\u099c\u09be\u09a4\u09bf\u0995": 4960, "\u09f0\u09cd\u09a3": 4961, "\u09f0\u09cd\u09a4\u09bf": 4962, "\u09f0\u09cd\u09a5": 4963, "\u09f0\u09cd\u09af": 4964, "\u09f0\u09cd\u09b6": 4965, "\u09f0\u09cd\u09b7": 4966, "\u09f0\u09f0": 4967, "\u09f1\u09a3": 4968, "\u09f1\u09a4": 4969, "\u09f1\u09a4\u09c0": 4970, "\u09f1\u09a7\u09be\u09a8": 4971, "\u09f1\u09a8": 4972, "\u09f1\u09a8\u09cd\u09a8": 4973, "\u09f1\u09b2": 4974, "\u09f1\u09b2\u09ae\u09cd\u09ac\u09c0": 4975, "\u09f1\u09b2\u09c0": 4976, "\u09f1\u09be": 4977, "\u09f1\u09be\u0987": 4978, "\u09f1\u09be\u09a8": 4979, "\u09f1\u09be\u09b2": 4980, "\u09f1\u09be\u09f0": 4981, "\u09f1\u09be\u09f0\u09cd": 4982, "\u09f1\u09bf": 4983, "\u09f1\u09bf\u0995": 4984, "\u09f1\u09bf\u0995\u09bf": 4985, "\u09f1\u09bf\u09a4\u09cd\u09f0": 4986, "\u09f1\u09c0": 4987, "\u09f1\u09c7": 4988, "\u09f1\u09c7\u0987": 4989, "\u09f1\u09c7\u09b2": 4990, "\u09f1\u09c7\u09b6": 4991, "\u09f1\u09c7\u09b6\u09f0": 4992, "\u09f1\u09c8": 4993, "\u09f1\u09f0": 4994, "\u09f1\u09f0\u09a3": 4995, "\u09f1\u09f0\u09c0": 4996, "\u09f1\u09f0\u09cd": 4997, "\u09f1\u09f0\u09cd\u09a4\u09a8": 4998, "\u09f1\u09f0\u09cd\u09a4\u09c0": 4999, "|": 5000, "<bos>": 5001, "<eos>": 5002, "<unk>": 5003, "<pad>": 5004}